unsigned char _content_mbed08_model_model_tflite[] = {
  0x1c, 0x00, 0x00, 0x00, 0x54, 0x46, 0x4c, 0x33, 0x14, 0x00, 0x20, 0x00,
  0x04, 0x00, 0x08, 0x00, 0x0c, 0x00, 0x10, 0x00, 0x14, 0x00, 0x00, 0x00,
  0x18, 0x00, 0x1c, 0x00, 0x14, 0x00, 0x00, 0x00, 0x03, 0x00, 0x00, 0x00,
  0x18, 0x00, 0x00, 0x00, 0x2c, 0x00, 0x00, 0x00, 0xd8, 0x00, 0x00, 0x00,
  0x2c, 0x00, 0x00, 0x00, 0x80, 0x00, 0x00, 0x00, 0x78, 0x00, 0x00, 0x00,
  0x05, 0x00, 0x00, 0x00, 0x28, 0x07, 0x00, 0x00, 0x44, 0x06, 0x00, 0x00,
  0xbc, 0x03, 0x00, 0x00, 0xf8, 0x02, 0x00, 0x00, 0xac, 0x01, 0x00, 0x00,
  0x01, 0x00, 0x00, 0x00, 0xd0, 0x00, 0x00, 0x00, 0x14, 0x00, 0x00, 0x00,
  0xdc, 0x32, 0x00, 0x00, 0xd8, 0x32, 0x00, 0x00, 0xd0, 0x31, 0x00, 0x00,
  0x1c, 0x31, 0x00, 0x00, 0x74, 0x30, 0x00, 0x00, 0xfc, 0x2f, 0x00, 0x00,
  0x90, 0x2f, 0x00, 0x00, 0x40, 0x13, 0x00, 0x00, 0xec, 0x11, 0x00, 0x00,
  0x10, 0x10, 0x00, 0x00, 0xb4, 0x07, 0x00, 0x00, 0xb0, 0x32, 0x00, 0x00,
  0xac, 0x32, 0x00, 0x00, 0xa8, 0x32, 0x00, 0x00, 0xa4, 0x32, 0x00, 0x00,
  0xa0, 0x32, 0x00, 0x00, 0x9c, 0x32, 0x00, 0x00, 0x98, 0x32, 0x00, 0x00,
  0x94, 0x32, 0x00, 0x00, 0x3c, 0x00, 0x00, 0x00, 0x00, 0x00, 0x00, 0x00,
  0x01, 0x00, 0x00, 0x00, 0x0c, 0x00, 0x00, 0x00, 0x08, 0x00, 0x0c, 0x00,
  0x04, 0x00, 0x08, 0x00, 0x08, 0x00, 0x00, 0x00, 0x08, 0x00, 0x00, 0x00,
  0x13, 0x00, 0x00, 0x00, 0x13, 0x00, 0x00, 0x00, 0x6d, 0x69, 0x6e, 0x5f,
  0x72, 0x75, 0x6e, 0x74, 0x69, 0x6d, 0x65, 0x5f, 0x76, 0x65, 0x72, 0x73,
  0x69, 0x6f, 0x6e, 0x00, 0xb6, 0xce, 0xff, 0xff, 0x04, 0x00, 0x00, 0x00,
  0x10, 0x00, 0x00, 0x00, 0x31, 0x2e, 0x35, 0x2e, 0x30, 0x00, 0x00, 0x00,
  0x00, 0x00, 0x00, 0x00, 0x00, 0x00, 0x00, 0x00, 0x0f, 0x00, 0x00, 0x00,
  0x4d, 0x4c, 0x49, 0x52, 0x20, 0x43, 0x6f, 0x6e, 0x76, 0x65, 0x72, 0x74,
  0x65, 0x64, 0x2e, 0x00, 0x00, 0x00, 0x0e, 0x00, 0x18, 0x00, 0x04, 0x00,
  0x08, 0x00, 0x0c, 0x00, 0x10, 0x00, 0x14, 0x00, 0x0e, 0x00, 0x00, 0x00,
  0x14, 0x00, 0x00, 0x00, 0x5c, 0x00, 0x00, 0x00, 0x60, 0x00, 0x00, 0x00,
  0x64, 0x00, 0x00, 0x00, 0x84, 0x00, 0x00, 0x00, 0x12, 0x00, 0x00, 0x00,
  0x9c, 0x31, 0x00, 0x00, 0x2c, 0x31, 0x00, 0x00, 0x88, 0x30, 0x00, 0x00,
  0xe0, 0x2f, 0x00, 0x00, 0x38, 0x2f, 0x00, 0x00, 0xd4, 0x2e, 0x00, 0x00,
  0x6c, 0x2e, 0x00, 0x00, 0x18, 0x12, 0x00, 0x00, 0xbc, 0x10, 0x00, 0x00,
  0xe0, 0x0e, 0x00, 0x00, 0x0c, 0x06, 0x00, 0x00, 0x28, 0x05, 0x00, 0x00,
  0xe8, 0x03, 0x00, 0x00, 0x3c, 0x03, 0x00, 0x00, 0x98, 0x02, 0x00, 0x00,
  0xd4, 0x01, 0x00, 0x00, 0x10, 0x01, 0x00, 0x00, 0x84, 0x00, 0x00, 0x00,
  0x01, 0x00, 0x00, 0x00, 0x00, 0x00, 0x00, 0x00, 0x01, 0x00, 0x00, 0x00,
  0x11, 0x00, 0x00, 0x00, 0x08, 0x00, 0x00, 0x00, 0x74, 0x05, 0x00, 0x00,
  0x94, 0x04, 0x00, 0x00, 0x78, 0x03, 0x00, 0x00, 0xbc, 0x02, 0x00, 0x00,
  0x30, 0x02, 0x00, 0x00, 0x50, 0x01, 0x00, 0x00, 0xa8, 0x00, 0x00, 0x00,
  0x10, 0x00, 0x00, 0x00, 0x04, 0x00, 0x00, 0x00, 0x6d, 0x61, 0x69, 0x6e,
  0x00, 0x00, 0x00, 0x00, 0x7a, 0xff, 0xff, 0xff, 0x00, 0x00, 0x00, 0x09,
  0x04, 0x00, 0x00, 0x00, 0x1c, 0x00, 0x00, 0x00, 0x10, 0x00, 0x00, 0x00,
  0x04, 0x00, 0x00, 0x00, 0xb2, 0xcf, 0xff, 0xff, 0x00, 0x00, 0x80, 0x3f,
  0x01, 0x00, 0x00, 0x00, 0x11, 0x00, 0x00, 0x00, 0x01, 0x00, 0x00, 0x00,
  0x10, 0x00, 0x00, 0x00, 0xa0, 0xfa, 0xff, 0xff, 0x19, 0x00, 0x00, 0x00,
  0x00, 0x00, 0x00, 0x19, 0x01, 0x00, 0x00, 0x00, 0x40, 0xcf, 0xff, 0xff,
  0x14, 0x00, 0x00, 0x00, 0x12, 0x00, 0x00, 0x00, 0x18, 0x00, 0x00, 0x00,
  0x30, 0x00, 0x00, 0x00, 0x20, 0x00, 0x00, 0x00, 0x02, 0x00, 0x00, 0x00,
  0x01, 0x00, 0x00, 0x00, 0x04, 0x00, 0x00, 0x00, 0x08, 0x00, 0x00, 0x00,
  0x49, 0x64, 0x65, 0x6e, 0x74, 0x69, 0x74, 0x79, 0x00, 0x00, 0x00, 0x00,
  0x02, 0x00, 0x00, 0x00, 0xff, 0xff, 0xff, 0xff, 0x04, 0x00, 0x00, 0x00,
  0x24, 0xd0, 0xff, 0xff, 0x00, 0x00, 0x0e, 0x00, 0x18, 0x00, 0x08, 0x00,
  0x0c, 0x00, 0x10, 0x00, 0x07, 0x00, 0x14, 0x00, 0x0e, 0x00, 0x00, 0x00,
  0x00, 0x00, 0x00, 0x08, 0x03, 0x00, 0x00, 0x00, 0x18, 0x00, 0x00, 0x00,
  0x0c, 0x00, 0x00, 0x00, 0x04, 0x00, 0x00, 0x00, 0x40, 0xcf, 0xff, 0xff,
  0x01, 0x00, 0x00, 0x00, 0x10, 0x00, 0x00, 0x00, 0x03, 0x00, 0x00, 0x00,
  0x0f, 0x00, 0x00, 0x00, 0x07, 0x00, 0x00, 0x00, 0x04, 0x00, 0x00, 0x00,
  0xc8, 0xcf, 0xff, 0xff, 0x14, 0x00, 0x00, 0x00, 0x11, 0x00, 0x00, 0x00,
  0x18, 0x00, 0x00, 0x00, 0x5c, 0x00, 0x00, 0x00, 0x4c, 0x00, 0x00, 0x00,
  0x02, 0x00, 0x00, 0x00, 0x01, 0x00, 0x00, 0x00, 0x04, 0x00, 0x00, 0x00,
  0x34, 0x00, 0x00, 0x00, 0x73, 0x65, 0x71, 0x75, 0x65, 0x6e, 0x74, 0x69,
  0x61, 0x6c, 0x2f, 0x64, 0x65, 0x6e, 0x73, 0x65, 0x5f, 0x31, 0x2f, 0x4d,
  0x61, 0x74, 0x4d, 0x75, 0x6c, 0x3b, 0x73, 0x65, 0x71, 0x75, 0x65, 0x6e,
  0x74, 0x69, 0x61, 0x6c, 0x2f, 0x64, 0x65, 0x6e, 0x73, 0x65, 0x5f, 0x31,
  0x2f, 0x42, 0x69, 0x61, 0x73, 0x41, 0x64, 0x64, 0x00, 0x00, 0x00, 0x00,
  0x02, 0x00, 0x00, 0x00, 0xff, 0xff, 0xff, 0xff, 0x04, 0x00, 0x00, 0x00,
  0xc8, 0xcf, 0xff, 0xff, 0xda, 0xfc, 0xff, 0xff, 0x00, 0x00, 0x00, 0x08,
  0x03, 0x00, 0x00, 0x00, 0x24, 0x00, 0x00, 0x00, 0x18, 0x00, 0x00, 0x00,
  0x0c, 0x00, 0x00, 0x00, 0x00, 0x00, 0x06, 0x00, 0x08, 0x00, 0x07, 0x00,
  0x06, 0x00, 0x00, 0x00, 0x00, 0x00, 0x00, 0x01, 0x01, 0x00, 0x00, 0x00,
  0x0f, 0x00, 0x00, 0x00, 0x03, 0x00, 0x00, 0x00, 0x0e, 0x00, 0x00, 0x00,
  0x06, 0x00, 0x00, 0x00, 0x03, 0x00, 0x00, 0x00, 0xe8, 0xfb, 0xff, 0xff,
  0x09, 0x00, 0x00, 0x00, 0x00, 0x00, 0x00, 0x09, 0x01, 0x00, 0x00, 0x00,
  0x88, 0xd0, 0xff, 0xff, 0x14, 0x00, 0x00, 0x00, 0x10, 0x00, 0x00, 0x00,
  0x18, 0x00, 0x00, 0x00, 0x6c, 0x00, 0x00, 0x00, 0x5c, 0x00, 0x00, 0x00,
  0x02, 0x00, 0x00, 0x00, 0x01, 0x00, 0x00, 0x00, 0x10, 0x00, 0x00, 0x00,
  0x46, 0x00, 0x00, 0x00, 0x73, 0x65, 0x71, 0x75, 0x65, 0x6e, 0x74, 0x69,
  0x61, 0x6c, 0x2f, 0x64, 0x65, 0x6e, 0x73, 0x65, 0x2f, 0x4d, 0x61, 0x74,
  0x4d, 0x75, 0x6c, 0x3b, 0x73, 0x65, 0x71, 0x75, 0x65, 0x6e, 0x74, 0x69,
  0x61, 0x6c, 0x2f, 0x64, 0x65, 0x6e, 0x73, 0x65, 0x2f, 0x52, 0x65, 0x6c,
  0x75, 0x3b, 0x73, 0x65, 0x71, 0x75, 0x65, 0x6e, 0x74, 0x69, 0x61, 0x6c,
  0x2f, 0x64, 0x65, 0x6e, 0x73, 0x65, 0x2f, 0x42, 0x69, 0x61, 0x73, 0x41,
  0x64, 0x64, 0x00, 0x00, 0x02, 0x00, 0x00, 0x00, 0xff, 0xff, 0xff, 0xff,
  0x10, 0x00, 0x00, 0x00, 0xa8, 0xd1, 0xff, 0xff, 0x00, 0x00, 0x0a, 0x00,
  0x10, 0x00, 0x04, 0x00, 0x08, 0x00, 0x0c, 0x00, 0x0a, 0x00, 0x00, 0x00,
  0x02, 0x00, 0x00, 0x00, 0x10, 0x00, 0x00, 0x00, 0x04, 0x00, 0x00, 0x00,
  0x01, 0x00, 0x00, 0x00, 0x0e, 0x00, 0x00, 0x00, 0x02, 0x00, 0x00, 0x00,
  0x0d, 0x00, 0x00, 0x00, 0x05, 0x00, 0x00, 0x00, 0xa8, 0xfc, 0xff, 0xff,
  0x16, 0x00, 0x00, 0x00, 0x00, 0x00, 0x00, 0x16, 0x01, 0x00, 0x00, 0x00,
  0x48, 0xd1, 0xff, 0xff, 0x14, 0x00, 0x00, 0x00, 0x0f, 0x00, 0x00, 0x00,
  0x18, 0x00, 0x00, 0x00, 0x40, 0x00, 0x00, 0x00, 0x30, 0x00, 0x00, 0x00,
  0x02, 0x00, 0x00, 0x00, 0x01, 0x00, 0x00, 0x00, 0x70, 0x00, 0x00, 0x00,
  0x1a, 0x00, 0x00, 0x00, 0x73, 0x65, 0x71, 0x75, 0x65, 0x6e, 0x74, 0x69,
  0x61, 0x6c, 0x2f, 0x66, 0x6c, 0x61, 0x74, 0x74, 0x65, 0x6e, 0x2f, 0x52,
  0x65, 0x73, 0x68, 0x61, 0x70, 0x65, 0x00, 0x00, 0x02, 0x00, 0x00, 0x00,
  0xff, 0xff, 0xff, 0xff, 0x70, 0x00, 0x00, 0x00, 0x2c, 0xd1, 0xff, 0xff,
  0x3e, 0xfe, 0xff, 0xff, 0x00, 0x00, 0x00, 0x05, 0x01, 0x00, 0x00, 0x00,
  0x38, 0x00, 0x00, 0x00, 0x2c, 0x00, 0x00, 0x00, 0x14, 0x00, 0x00, 0x00,
  0x00, 0x00, 0x0e, 0x00, 0x14, 0x00, 0x00, 0x00, 0x10, 0x00, 0x0c, 0x00,
  0x08, 0x00, 0x04, 0x00, 0x0e, 0x00, 0x00, 0x00, 0x03, 0x00, 0x00, 0x00,
  0x01, 0x00, 0x00, 0x00, 0x03, 0x00, 0x00, 0x00, 0x01, 0x00, 0x00, 0x00,
  0x01, 0x00, 0x00, 0x00, 0x0d, 0x00, 0x00, 0x00, 0x01, 0x00, 0x00, 0x00,
  0x0c, 0x00, 0x00, 0x00, 0xe8, 0xd1, 0xff, 0xff, 0x14, 0x00, 0x00, 0x00,
  0x0e, 0x00, 0x00, 0x00, 0x20, 0x00, 0x00, 0x00, 0x58, 0x00, 0x00, 0x00,
  0x40, 0x00, 0x00, 0x00, 0x04, 0x00, 0x00, 0x00, 0x01, 0x00, 0x00, 0x00,
  0x07, 0x00, 0x00, 0x00, 0x01, 0x00, 0x00, 0x00, 0x10, 0x00, 0x00, 0x00,
  0x22, 0x00, 0x00, 0x00, 0x73, 0x65, 0x71, 0x75, 0x65, 0x6e, 0x74, 0x69,
  0x61, 0x6c, 0x2f, 0x6d, 0x61, 0x78, 0x5f, 0x70, 0x6f, 0x6f, 0x6c, 0x69,
  0x6e, 0x67, 0x32, 0x64, 0x5f, 0x31, 0x2f, 0x4d, 0x61, 0x78, 0x50, 0x6f,
  0x6f, 0x6c, 0x00, 0x00, 0x04, 0x00, 0x00, 0x00, 0xff, 0xff, 0xff, 0xff,
  0x07, 0x00, 0x00, 0x00, 0x01, 0x00, 0x00, 0x00, 0x10, 0x00, 0x00, 0x00,
  0xe4, 0xd1, 0xff, 0xff, 0x1a, 0xfe, 0xff, 0xff, 0x00, 0x00, 0x00, 0x01,
  0x24, 0x00, 0x00, 0x00, 0x18, 0x00, 0x00, 0x00, 0x04, 0x00, 0x00, 0x00,
  0x0c, 0xfe, 0xff, 0xff, 0x01, 0x00, 0x00, 0x00, 0x01, 0x00, 0x00, 0x00,
  0x00, 0x00, 0x00, 0x01, 0x01, 0x00, 0x00, 0x00, 0x0c, 0x00, 0x00, 0x00,
  0x03, 0x00, 0x00, 0x00, 0x0b, 0x00, 0x00, 0x00, 0x09, 0x00, 0x00, 0x00,
  0x02, 0x00, 0x00, 0x00, 0x90, 0xd2, 0xff, 0xff, 0x14, 0x00, 0x00, 0x00,
  0x0d, 0x00, 0x00, 0x00, 0x20, 0x00, 0x00, 0x00, 0xb8, 0x00, 0x00, 0x00,
  0xa0, 0x00, 0x00, 0x00, 0x04, 0x00, 0x00, 0x00, 0x01, 0x00, 0x00, 0x00,
  0x15, 0x00, 0x00, 0x00, 0x01, 0x00, 0x00, 0x00, 0x10, 0x00, 0x00, 0x00,
  0x83, 0x00, 0x00, 0x00, 0x73, 0x65, 0x71, 0x75, 0x65, 0x6e, 0x74, 0x69,
  0x61, 0x6c, 0x2f, 0x63, 0x6f, 0x6e, 0x76, 0x32, 0x64, 0x5f, 0x31, 0x2f,
  0x52, 0x65, 0x6c, 0x75, 0x3b, 0x73, 0x65, 0x71, 0x75, 0x65, 0x6e, 0x74,
  0x69, 0x61, 0x6c, 0x2f, 0x63, 0x6f, 0x6e, 0x76, 0x32, 0x64, 0x5f, 0x31,
  0x2f, 0x42, 0x69, 0x61, 0x73, 0x41, 0x64, 0x64, 0x3b, 0x73, 0x65, 0x71,
  0x75, 0x65, 0x6e, 0x74, 0x69, 0x61, 0x6c, 0x2f, 0x63, 0x6f, 0x6e, 0x76,
  0x32, 0x64, 0x5f, 0x31, 0x2f, 0x43, 0x6f, 0x6e, 0x76, 0x32, 0x44, 0x3b,
  0x73, 0x65, 0x71, 0x75, 0x65, 0x6e, 0x74, 0x69, 0x61, 0x6c, 0x2f, 0x63,
  0x6f, 0x6e, 0x76, 0x32, 0x64, 0x5f, 0x31, 0x2f, 0x42, 0x69, 0x61, 0x73,
  0x41, 0x64, 0x64, 0x2f, 0x52, 0x65, 0x61, 0x64, 0x56, 0x61, 0x72, 0x69,
  0x61, 0x62, 0x6c, 0x65, 0x4f, 0x70, 0x2f, 0x72, 0x65, 0x73, 0x6f, 0x75,
  0x72, 0x63, 0x65, 0x00, 0x04, 0x00, 0x00, 0x00, 0xff, 0xff, 0xff, 0xff,
  0x15, 0x00, 0x00, 0x00, 0x01, 0x00, 0x00, 0x00, 0x10, 0x00, 0x00, 0x00,
  0xfc, 0xd3, 0xff, 0xff, 0x00, 0x00, 0x0e, 0x00, 0x1a, 0x00, 0x08, 0x00,
  0x0c, 0x00, 0x10, 0x00, 0x07, 0x00, 0x14, 0x00, 0x0e, 0x00, 0x00, 0x00,
  0x00, 0x00, 0x00, 0x05, 0x01, 0x00, 0x00, 0x00, 0x3c, 0x00, 0x00, 0x00,
  0x30, 0x00, 0x00, 0x00, 0x14, 0x00, 0x00, 0x00, 0x00, 0x00, 0x0e, 0x00,
  0x18, 0x00, 0x17, 0x00, 0x10, 0x00, 0x0c, 0x00, 0x08, 0x00, 0x04, 0x00,
  0x0e, 0x00, 0x00, 0x00, 0x03, 0x00, 0x00, 0x00, 0x03, 0x00, 0x00, 0x00,
  0x03, 0x00, 0x00, 0x00, 0x03, 0x00, 0x00, 0x00, 0x00, 0x00, 0x00, 0x01,
  0x01, 0x00, 0x00, 0x00, 0x0b, 0x00, 0x00, 0x00, 0x01, 0x00, 0x00, 0x00,
  0x0a, 0x00, 0x00, 0x00, 0x2c, 0xff, 0xff, 0xff, 0x11, 0x00, 0x00, 0x00,
  0x00, 0x00, 0x00, 0x11, 0x01, 0x00, 0x00, 0x00, 0xcc, 0xd3, 0xff, 0xff,
  0x14, 0x00, 0x00, 0x00, 0x0c, 0x00, 0x00, 0x00, 0x20, 0x00, 0x00, 0x00,
  0x58, 0x00, 0x00, 0x00, 0x40, 0x00, 0x00, 0x00, 0x04, 0x00, 0x00, 0x00,
  0x01, 0x00, 0x00, 0x00, 0x15, 0x00, 0x00, 0x00, 0x01, 0x00, 0x00, 0x00,
  0x08, 0x00, 0x00, 0x00, 0x20, 0x00, 0x00, 0x00, 0x73, 0x65, 0x71, 0x75,
  0x65, 0x6e, 0x74, 0x69, 0x61, 0x6c, 0x2f, 0x6d, 0x61, 0x78, 0x5f, 0x70,
  0x6f, 0x6f, 0x6c, 0x69, 0x6e, 0x67, 0x32, 0x64, 0x2f, 0x4d, 0x61, 0x78,
  0x50, 0x6f, 0x6f, 0x6c, 0x00, 0x00, 0x00, 0x00, 0x04, 0x00, 0x00, 0x00,
  0xff, 0xff, 0xff, 0xff, 0x15, 0x00, 0x00, 0x00, 0x01, 0x00, 0x00, 0x00,
  0x08, 0x00, 0x00, 0x00, 0xd8, 0xd4, 0xff, 0xff, 0x00, 0x00, 0x0e, 0x00,
  0x14, 0x00, 0x00, 0x00, 0x08, 0x00, 0x0c, 0x00, 0x07, 0x00, 0x10, 0x00,
  0x0e, 0x00, 0x00, 0x00, 0x00, 0x00, 0x00, 0x01, 0x30, 0x00, 0x00, 0x00,
  0x24, 0x00, 0x00, 0x00, 0x10, 0x00, 0x00, 0x00, 0x0c, 0x00, 0x10, 0x00,
  0x00, 0x00, 0x04, 0x00, 0x08, 0x00, 0x0f, 0x00, 0x0c, 0x00, 0x00, 0x00,
  0x01, 0x00, 0x00, 0x00, 0x01, 0x00, 0x00, 0x00, 0x00, 0x00, 0x00, 0x01,
  0x01, 0x00, 0x00, 0x00, 0x0a, 0x00, 0x00, 0x00, 0x03, 0x00, 0x00, 0x00,
  0x00, 0x00, 0x00, 0x00, 0x08, 0x00, 0x00, 0x00, 0x01, 0x00, 0x00, 0x00,
  0x0c, 0x00, 0x10, 0x00, 0x0b, 0x00, 0x00, 0x00, 0x0c, 0x00, 0x04, 0x00,
  0x0c, 0x00, 0x00, 0x00, 0x03, 0x00, 0x00, 0x00, 0x00, 0x00, 0x00, 0x03,
  0x01, 0x00, 0x00, 0x00, 0xac, 0xd4, 0xff, 0xff, 0x14, 0x00, 0x00, 0x00,
  0x0b, 0x00, 0x00, 0x00, 0x20, 0x00, 0x00, 0x00, 0xb0, 0x00, 0x00, 0x00,
  0x98, 0x00, 0x00, 0x00, 0x04, 0x00, 0x00, 0x00, 0x01, 0x00, 0x00, 0x00,
  0x40, 0x00, 0x00, 0x00, 0x03, 0x00, 0x00, 0x00, 0x08, 0x00, 0x00, 0x00,
  0x7b, 0x00, 0x00, 0x00, 0x73, 0x65, 0x71, 0x75, 0x65, 0x6e, 0x74, 0x69,
  0x61, 0x6c, 0x2f, 0x63, 0x6f, 0x6e, 0x76, 0x32, 0x64, 0x2f, 0x52, 0x65,
  0x6c, 0x75, 0x3b, 0x73, 0x65, 0x71, 0x75, 0x65, 0x6e, 0x74, 0x69, 0x61,
  0x6c, 0x2f, 0x63, 0x6f, 0x6e, 0x76, 0x32, 0x64, 0x2f, 0x42, 0x69, 0x61,
  0x73, 0x41, 0x64, 0x64, 0x3b, 0x73, 0x65, 0x71, 0x75, 0x65, 0x6e, 0x74,
  0x69, 0x61, 0x6c, 0x2f, 0x63, 0x6f, 0x6e, 0x76, 0x32, 0x64, 0x2f, 0x43,
  0x6f, 0x6e, 0x76, 0x32, 0x44, 0x3b, 0x73, 0x65, 0x71, 0x75, 0x65, 0x6e,
  0x74, 0x69, 0x61, 0x6c, 0x2f, 0x63, 0x6f, 0x6e, 0x76, 0x32, 0x64, 0x2f,
  0x42, 0x69, 0x61, 0x73, 0x41, 0x64, 0x64, 0x2f, 0x52, 0x65, 0x61, 0x64,
  0x56, 0x61, 0x72, 0x69, 0x61, 0x62, 0x6c, 0x65, 0x4f, 0x70, 0x2f, 0x72,
  0x65, 0x73, 0x6f, 0x75, 0x72, 0x63, 0x65, 0x00, 0x04, 0x00, 0x00, 0x00,
  0xff, 0xff, 0xff, 0xff, 0x40, 0x00, 0x00, 0x00, 0x03, 0x00, 0x00, 0x00,
  0x08, 0x00, 0x00, 0x00, 0x00, 0xd5, 0xff, 0xff, 0x0a, 0xd6, 0xff, 0xff,
  0x04, 0x00, 0x00, 0x00, 0x00, 0x08, 0x00, 0x00, 0x55, 0x76, 0xae, 0xbd,
  0xe3, 0x67, 0x2f, 0x3d, 0x09, 0x4d, 0x14, 0x3c, 0x32, 0xf4, 0xcc, 0xbd,
  0xfc, 0x71, 0x62, 0xbd, 0x9d, 0x4d, 0xfa, 0xbd, 0x65, 0x6a, 0x5b, 0xbe,
  0xd3, 0x6c, 0x1c, 0x3e, 0x80, 0x5b, 0xf4, 0x3d, 0x49, 0xd9, 0x80, 0x3c,
  0xfa, 0xac, 0x55, 0x3e, 0x5f, 0x32, 0xad, 0xbd, 0xe9, 0xf1, 0x3f, 0xbd,
  0xbe, 0x06, 0x6f, 0xbd, 0x3d, 0x05, 0x94, 0x3b, 0xc6, 0xfa, 0x07, 0x3e,
  0x20, 0x41, 0x5b, 0x3c, 0x79, 0x89, 0x54, 0x3d, 0xc3, 0xa4, 0x70, 0x3e,
  0x4b, 0x31, 0x08, 0xbe, 0x52, 0xba, 0xe1, 0xbd, 0x46, 0xfb, 0x86, 0xbe,
  0x7d, 0x98, 0x0f, 0xbe, 0xc5, 0x9b, 0x81, 0xbe, 0xa4, 0x9a, 0xcd, 0xbd,
  0xe8, 0x91, 0xb1, 0xbd, 0xa1, 0x84, 0x6c, 0xbd, 0xf6, 0xfc, 0x94, 0xbd,
  0x8e, 0x27, 0x8b, 0xbd, 0x15, 0x27, 0x2d, 0xbe, 0x02, 0xf1, 0x5f, 0x3d,
  0xcf, 0x68, 0xe2, 0xbd, 0x84, 0x66, 0xd3, 0x3d, 0x59, 0x1b, 0xb2, 0x3e,
  0xae, 0xd5, 0x9f, 0x3e, 0xc6, 0x71, 0x08, 0xbe, 0x78, 0x64, 0xa8, 0x3e,
  0x73, 0xe2, 0x6a, 0xbe, 0xc0, 0x36, 0xd2, 0x3c, 0xee, 0x05, 0xa1, 0xbe,
  0xe6, 0x79, 0xa5, 0xbe, 0xd5, 0xa4, 0xec, 0xbd, 0x7a, 0xdc, 0xde, 0xbc,
  0x48, 0x03, 0xb2, 0xbe, 0xba, 0x7f, 0x05, 0xbe, 0xb7, 0x80, 0x82, 0xbe,
  0xde, 0x1e, 0x59, 0xbe, 0xd6, 0x31, 0x82, 0xbe, 0x47, 0x71, 0xa5, 0xbe,
  0xab, 0xd2, 0x3d, 0xbd, 0x4e, 0xee, 0x34, 0x3d, 0xad, 0x86, 0x41, 0xbc,
  0x98, 0xb8, 0x5c, 0xbe, 0xef, 0x4f, 0x1f, 0xbd, 0xba, 0xe2, 0x83, 0x3d,
  0x82, 0x28, 0x2f, 0xbe, 0x12, 0x42, 0x76, 0xbe, 0xa4, 0x19, 0x13, 0xbe,
  0xcf, 0x8f, 0x2c, 0x3c, 0xef, 0x02, 0x36, 0x3e, 0xaf, 0x1a, 0x3b, 0xbe,
  0x66, 0x6d, 0x50, 0x3c, 0x0e, 0xc5, 0x74, 0x3d, 0x1c, 0xaa, 0x2a, 0x3f,
  0x8b, 0x5a, 0xa9, 0xbe, 0xc0, 0x9f, 0xe1, 0xbe, 0x6d, 0x2a, 0xfc, 0xbe,
  0xf7, 0x27, 0xcc, 0xbd, 0x10, 0x88, 0x19, 0xbe, 0x27, 0xe8, 0x2e, 0xbe,
  0x23, 0x92, 0x9a, 0x3d, 0xd5, 0x89, 0xd9, 0xbd, 0xaf, 0x4e, 0x1e, 0x3e,
  0xfc, 0xb5, 0x59, 0xbe, 0x14, 0x99, 0x6b, 0xbe, 0x81, 0x1c, 0x67, 0xbd,
  0x29, 0x3d, 0x07, 0xbe, 0xe1, 0xec, 0x2b, 0xbd, 0xa1, 0xf2, 0xc4, 0x3d,
  0xe0, 0x0b, 0x25, 0xbe, 0x40, 0x71, 0x6e, 0x3d, 0x86, 0x2c, 0x3a, 0xbd,
  0xce, 0x1e, 0x11, 0xbe, 0x31, 0x0d, 0x62, 0xbc, 0xa0, 0x4e, 0xb4, 0xbc,
  0xd0, 0x3e, 0x0b, 0xbd, 0xee, 0xd0, 0xff, 0xbd, 0xfb, 0x7f, 0x58, 0xbd,
  0xab, 0x8b, 0x64, 0x3e, 0x22, 0x59, 0x51, 0x3e, 0xc0, 0x7b, 0x9b, 0x3d,
  0x50, 0xc7, 0x17, 0xbc, 0xc9, 0xc5, 0xa4, 0xbd, 0x53, 0xf1, 0xe0, 0x3e,
  0xd2, 0xd7, 0xb4, 0x3d, 0xf2, 0x35, 0x54, 0x3d, 0x86, 0x6f, 0xa1, 0xbd,
  0x79, 0xd4, 0xea, 0x3d, 0xb1, 0x8f, 0x17, 0x3f, 0xa2, 0x71, 0xfb, 0xbc,
  0xce, 0x08, 0x9e, 0xbe, 0x38, 0xbb, 0xb6, 0x39, 0xf6, 0x25, 0x52, 0x3e,
  0xf8, 0x0d, 0xcd, 0xbe, 0xf7, 0x98, 0x7b, 0xbe, 0xa0, 0x04, 0x9b, 0xbd,
  0x2f, 0xbd, 0x34, 0x3c, 0xc8, 0x1c, 0xc1, 0xbc, 0x0b, 0x37, 0xb2, 0xbd,
  0x97, 0x05, 0x15, 0xbe, 0x37, 0xf6, 0xbd, 0xbd, 0x7f, 0xdf, 0x7c, 0xbe,
  0x61, 0x1c, 0x94, 0xbe, 0xe6, 0x1f, 0xe8, 0xbd, 0x38, 0x8e, 0x6c, 0xbd,
  0x3b, 0xb9, 0xb0, 0xbd, 0x96, 0x3f, 0x4b, 0x3e, 0x40, 0xd9, 0x42, 0xbe,
  0xdb, 0x6e, 0xae, 0x3d, 0x1d, 0x34, 0x6d, 0xbe, 0x58, 0x9c, 0x52, 0xbe,
  0x8c, 0x86, 0x7a, 0xbe, 0xba, 0x37, 0x29, 0xbe, 0xb0, 0x8f, 0xe8, 0x3d,
  0x5c, 0xff, 0x87, 0x3e, 0x8a, 0x86, 0x7d, 0xbe, 0xa0, 0xe1, 0x0d, 0x3c,
  0x15, 0xed, 0x5d, 0xbe, 0x5a, 0x8f, 0x55, 0xbe, 0xb7, 0x7c, 0x01, 0xbe,
  0x64, 0x28, 0xd1, 0xbe, 0x1b, 0x87, 0x9b, 0xbe, 0x02, 0xfe, 0x55, 0xbd,
  0xae, 0xc1, 0x88, 0xbe, 0xc6, 0x39, 0xd6, 0xbe, 0x22, 0xfe, 0x9f, 0xbe,
  0x58, 0x49, 0xee, 0xbc, 0x4e, 0x05, 0x6f, 0xbd, 0x73, 0xc2, 0xf0, 0xbd,
  0xda, 0xdc, 0x69, 0x3e, 0x5b, 0x76, 0xe3, 0x3d, 0x77, 0x9d, 0xe7, 0xbe,
  0xa4, 0x73, 0x44, 0xbd, 0x4b, 0xf8, 0x88, 0xbd, 0x16, 0x19, 0x20, 0x3e,
  0x19, 0x8e, 0x87, 0x3d, 0x77, 0x86, 0x0f, 0x3b, 0xe9, 0xc2, 0x1f, 0xbe,
  0xfe, 0x0d, 0xa8, 0x3d, 0x17, 0x44, 0x62, 0xbe, 0xc0, 0x2c, 0xa7, 0xbc,
  0x29, 0xeb, 0x8b, 0x3e, 0x52, 0x09, 0x3c, 0xbd, 0x5c, 0x38, 0x60, 0x3c,
  0x55, 0xcf, 0x11, 0x3d, 0x8e, 0x5e, 0x84, 0xbe, 0x32, 0xcb, 0xa1, 0x3e,
  0x42, 0xca, 0xd8, 0xbd, 0xe7, 0x11, 0x5a, 0xbe, 0x3b, 0xbb, 0xab, 0xbc,
  0xae, 0x19, 0xcc, 0xbd, 0xdb, 0x9b, 0x81, 0xbd, 0x6a, 0x55, 0xc8, 0xbd,
  0xb9, 0x0a, 0x3a, 0xbe, 0x17, 0x8b, 0x0e, 0xbe, 0xc1, 0x52, 0x07, 0x3d,
  0x1b, 0x1a, 0x05, 0xbd, 0x31, 0xc7, 0x95, 0x3e, 0x05, 0x7c, 0xce, 0xbc,
  0x0c, 0x1d, 0x66, 0xbe, 0x3c, 0x39, 0x28, 0xbe, 0xc0, 0x8b, 0x30, 0xbd,
  0x0c, 0x22, 0x54, 0x3d, 0xbe, 0xab, 0xd7, 0x3c, 0x44, 0xd0, 0xe8, 0x3e,
  0xf8, 0x5d, 0x38, 0x3e, 0x22, 0x0a, 0xd4, 0x3e, 0x21, 0x5b, 0x2e, 0xbd,
  0x38, 0x5d, 0xcf, 0x3c, 0x6c, 0x82, 0x12, 0x3d, 0x64, 0xb7, 0xcc, 0x3d,
  0x1f, 0x1d, 0x37, 0xbe, 0x5f, 0x4e, 0x06, 0xbe, 0x01, 0x34, 0x23, 0xbe,
  0xff, 0x48, 0x2e, 0xbe, 0x41, 0x7c, 0xae, 0x3c, 0xe1, 0x4d, 0x8e, 0xbd,
  0x7c, 0xe3, 0x43, 0xbe, 0x64, 0xf3, 0x86, 0xbd, 0x9f, 0x47, 0x9b, 0xbe,
  0x3f, 0x06, 0x84, 0xbe, 0x15, 0x06, 0x8d, 0xbe, 0xc2, 0x28, 0x25, 0xbe,
  0xc0, 0x1e, 0x4b, 0xbe, 0xa0, 0x69, 0x64, 0xbe, 0xdf, 0xf7, 0x5c, 0xbd,
  0x3a, 0xde, 0xf3, 0xbd, 0xbe, 0x56, 0xe3, 0xbb, 0xfd, 0xcd, 0x25, 0xbd,
  0x0b, 0x5d, 0x21, 0x3e, 0x2a, 0xd0, 0x2f, 0x3d, 0xcc, 0x7c, 0x80, 0xbe,
  0xa0, 0x8b, 0x7f, 0xbe, 0x3b, 0x13, 0xaf, 0xbd, 0x89, 0x27, 0xb4, 0xbd,
  0x91, 0xd3, 0x0c, 0xbe, 0xa1, 0x17, 0x70, 0x3e, 0x4c, 0x03, 0x46, 0xbd,
  0x6f, 0x03, 0xb1, 0x3e, 0x32, 0xfc, 0xf0, 0x3d, 0x82, 0xae, 0x64, 0xbd,
  0x38, 0x59, 0x99, 0x3e, 0xc8, 0xbd, 0x82, 0x3d, 0xde, 0x70, 0xa3, 0xbe,
  0x3f, 0x6c, 0x9f, 0x3e, 0x4d, 0x93, 0x43, 0xbe, 0xdb, 0x66, 0x38, 0xbd,
  0xed, 0x38, 0xa8, 0x3d, 0x50, 0x75, 0x68, 0x3e, 0x9f, 0x93, 0xb3, 0xbe,
  0xbb, 0x6b, 0xc0, 0x3c, 0x49, 0xbe, 0x2c, 0xbe, 0x67, 0xf5, 0x5c, 0xbf,
  0x6c, 0x38, 0xea, 0xbd, 0x2e, 0x19, 0x1e, 0x3d, 0xf5, 0xf3, 0xaa, 0x3d,
  0x37, 0x4d, 0x2b, 0x3d, 0x43, 0x56, 0xd0, 0xbd, 0xc1, 0xc0, 0x23, 0xbd,
  0x26, 0xa0, 0x26, 0x3e, 0x24, 0x70, 0x61, 0x3e, 0x92, 0xfa, 0x99, 0x3c,
  0xb2, 0x75, 0xa7, 0xbc, 0xf7, 0x8b, 0x0b, 0xbd, 0x52, 0xa7, 0x7e, 0x3d,
  0xa8, 0xed, 0xb6, 0xbd, 0xf3, 0xc5, 0xf0, 0x3a, 0xdd, 0x2c, 0x7f, 0xbd,
  0x81, 0xfc, 0x12, 0x3e, 0xa1, 0x44, 0x01, 0xbd, 0x71, 0xf3, 0xad, 0xbb,
  0xd6, 0x0c, 0x35, 0x3e, 0x9a, 0x3b, 0x88, 0xbd, 0xfb, 0xf6, 0xd5, 0x3d,
  0xd7, 0xb8, 0x7e, 0x3d, 0xc8, 0xba, 0xf2, 0xbc, 0x56, 0xa1, 0x88, 0xbe,
  0xb3, 0xc5, 0xed, 0xbc, 0xd6, 0x7e, 0x75, 0x3e, 0x3d, 0xd1, 0xaa, 0xbd,
  0x48, 0x48, 0x15, 0x3e, 0xf5, 0x96, 0x5b, 0xba, 0x2a, 0x74, 0xbf, 0x3d,
  0xdc, 0xc3, 0x63, 0x3d, 0x27, 0x0a, 0x90, 0xbc, 0xe8, 0x48, 0x30, 0xbd,
  0x9b, 0xd1, 0x99, 0xbd, 0x9c, 0x43, 0xf3, 0xbc, 0x19, 0xa6, 0x8e, 0xbe,
  0x63, 0x5a, 0x42, 0xbe, 0xa7, 0xf1, 0xba, 0xbc, 0xee, 0x35, 0xd9, 0xbd,
  0x5a, 0xa6, 0x9b, 0xbe, 0x6c, 0xe4, 0xb4, 0x3d, 0x9e, 0x3a, 0xe6, 0xbd,
  0x53, 0x13, 0x65, 0xbd, 0x66, 0x4d, 0x1c, 0xbf, 0xb5, 0x95, 0xa1, 0xbe,
  0xfd, 0x30, 0x9d, 0x3c, 0x71, 0x72, 0x7e, 0xbe, 0x71, 0x91, 0x21, 0xbf,
  0xfb, 0x93, 0x3b, 0x3e, 0xbf, 0x01, 0xdf, 0xbc, 0xe5, 0xe8, 0xa5, 0x3e,
  0x12, 0x9c, 0xc0, 0xbe, 0x96, 0x64, 0x35, 0xbe, 0x8b, 0xc9, 0xe2, 0x3d,
  0x5c, 0x2c, 0x9e, 0xbe, 0x2e, 0x38, 0x8d, 0xbe, 0xc7, 0x51, 0x36, 0x3e,
  0x65, 0xad, 0x24, 0x3d, 0xb7, 0x6a, 0xb5, 0x3c, 0xfd, 0x2e, 0xf8, 0xbe,
  0x9f, 0x44, 0xf9, 0x3d, 0xae, 0x48, 0xbd, 0xbd, 0x07, 0x9c, 0x8a, 0xbe,
  0x38, 0x48, 0x19, 0xbe, 0x94, 0x2f, 0x5e, 0xbb, 0x52, 0x55, 0x97, 0xbe,
  0x07, 0x86, 0x47, 0xbe, 0xe6, 0x65, 0x3b, 0xbe, 0xe0, 0x0b, 0x9b, 0xbe,
  0xb8, 0x65, 0xf5, 0x3d, 0x84, 0xa6, 0xbc, 0x3c, 0x37, 0x9b, 0x8f, 0xbe,
  0x76, 0x44, 0xb8, 0x3d, 0xfa, 0x3f, 0x81, 0x3e, 0x8e, 0x56, 0xa7, 0xbd,
  0x6e, 0x87, 0x16, 0xbe, 0x97, 0xcf, 0x3f, 0xbe, 0x68, 0xc3, 0x36, 0xbd,
  0x05, 0x50, 0x3c, 0xbe, 0x02, 0x76, 0x7c, 0xbe, 0x60, 0x95, 0x6b, 0x3d,
  0x7d, 0x71, 0x0e, 0xbd, 0x26, 0x9c, 0xcd, 0x3d, 0x4b, 0x92, 0xcd, 0xbd,
  0x7f, 0x8b, 0x40, 0x3e, 0x8c, 0x8d, 0xdc, 0xbd, 0x44, 0xe8, 0x3f, 0xbe,
  0x69, 0x52, 0x47, 0xbe, 0x22, 0x69, 0x10, 0x3e, 0x00, 0x72, 0x41, 0xbe,
  0xc9, 0xe5, 0x1e, 0x3d, 0x76, 0xd9, 0xfd, 0x3c, 0x5e, 0x86, 0x8f, 0x3c,
  0xb7, 0x82, 0x69, 0xbd, 0xf9, 0x35, 0x8a, 0xbe, 0x1d, 0xf6, 0x34, 0x3d,
  0xa3, 0x07, 0xa5, 0x3d, 0x63, 0x54, 0x82, 0xbe, 0x4d, 0x91, 0xc2, 0xbc,
  0x1a, 0x0f, 0x05, 0xbe, 0xa5, 0x92, 0xaa, 0xbd, 0xf3, 0xa9, 0x92, 0x3d,
  0x49, 0x0e, 0x15, 0xbe, 0x53, 0xe3, 0x70, 0xbe, 0x66, 0x9c, 0xec, 0xbd,
  0xc6, 0x55, 0xd2, 0xbe, 0xb5, 0xfd, 0x89, 0x3e, 0xd9, 0xe0, 0x0b, 0xbe,
  0x27, 0xf9, 0x95, 0xbe, 0xaf, 0x90, 0xae, 0x3e, 0xa4, 0x32, 0x29, 0x3f,
  0x3e, 0x8c, 0x90, 0xbe, 0x6c, 0xef, 0x37, 0x3c, 0x1f, 0xa7, 0xb0, 0x3d,
  0xb4, 0x67, 0xa4, 0xbe, 0x97, 0xed, 0x1a, 0xbe, 0x55, 0xac, 0x9b, 0xbd,
  0x00, 0xba, 0x96, 0xbe, 0xad, 0x49, 0x86, 0xbd, 0x6f, 0x03, 0xdb, 0x3d,
  0x03, 0xc5, 0x9e, 0xbd, 0x98, 0x46, 0x34, 0x3d, 0x10, 0x83, 0xc9, 0xbd,
  0x5b, 0x49, 0x11, 0xbe, 0x05, 0x81, 0x15, 0x3d, 0x4f, 0x68, 0x5e, 0xbd,
  0xd7, 0x89, 0x58, 0xbd, 0xf3, 0x3d, 0x1d, 0x3e, 0xe3, 0xe0, 0xe9, 0xbd,
  0xd4, 0x17, 0xe7, 0xbc, 0x55, 0x26, 0x17, 0x3f, 0x82, 0x6d, 0xaa, 0x3d,
  0x95, 0x52, 0xa2, 0xbd, 0xac, 0x37, 0xd7, 0x3d, 0xb0, 0x91, 0xf1, 0x3c,
  0x20, 0xd4, 0xd9, 0x3d, 0xee, 0x3c, 0x58, 0xbd, 0xfd, 0x1a, 0x6c, 0xbe,
  0xd5, 0x54, 0x20, 0xbd, 0x1d, 0x77, 0x8b, 0x3d, 0x74, 0xf7, 0x6b, 0xbd,
  0x08, 0x28, 0xd2, 0xbd, 0xa3, 0x9b, 0x9c, 0x3b, 0xf3, 0x0c, 0x48, 0x3e,
  0xbe, 0x72, 0xe1, 0xbd, 0xcb, 0x76, 0xb3, 0xbe, 0xa9, 0x96, 0x27, 0xbe,
  0xfb, 0xc7, 0x47, 0x3e, 0x48, 0x26, 0xf6, 0xbd, 0x76, 0x37, 0x35, 0xbe,
  0xee, 0x49, 0x9f, 0xbd, 0x49, 0x2c, 0xb9, 0xbd, 0xac, 0x1c, 0x97, 0xbd,
  0xa9, 0x74, 0xbb, 0xbe, 0x4a, 0x2f, 0x9a, 0xbe, 0x2c, 0x05, 0x26, 0xbe,
  0xed, 0x9a, 0x4f, 0x3d, 0x02, 0x32, 0xc7, 0xbd, 0x13, 0xe3, 0x72, 0xbd,
  0x18, 0x00, 0x00, 0xbe, 0x19, 0x10, 0xdf, 0x3d, 0x30, 0x2c, 0x96, 0xbd,
  0xb4, 0xe3, 0xda, 0xbd, 0xd8, 0x3c, 0x3e, 0xbe, 0xc3, 0xfe, 0x16, 0x3e,
  0x0c, 0xfc, 0xe1, 0x3d, 0x02, 0x56, 0xf9, 0xbd, 0xe0, 0x41, 0x2c, 0x3b,
  0x51, 0x50, 0x51, 0xbe, 0xbb, 0x54, 0x0d, 0xbe, 0x1e, 0x66, 0x29, 0xbe,
  0xea, 0x91, 0x40, 0xbd, 0xa0, 0xf8, 0xa4, 0x3b, 0x70, 0x43, 0xd3, 0x3c,
  0x97, 0x59, 0x3f, 0x3d, 0x75, 0x9a, 0x1e, 0x3f, 0x58, 0xd2, 0x6e, 0x3d,
  0x84, 0x68, 0xe1, 0xbd, 0x2a, 0x81, 0x08, 0xbe, 0xd6, 0xc5, 0x31, 0xbd,
  0x83, 0xbf, 0x8b, 0x3e, 0x93, 0xdd, 0x73, 0x3c, 0x92, 0xec, 0xde, 0x3c,
  0x1e, 0x7f, 0x93, 0xbd, 0xdb, 0xa2, 0x12, 0x3d, 0xf1, 0xc4, 0xfe, 0xbd,
  0xf0, 0x04, 0x18, 0xbe, 0x3f, 0xb4, 0xc1, 0xbc, 0x89, 0x13, 0x6b, 0x3e,
  0x69, 0x15, 0xa5, 0x3c, 0xa8, 0x8a, 0x80, 0xb8, 0x0f, 0xee, 0x63, 0x3e,
  0x68, 0x49, 0x92, 0x3d, 0x27, 0x51, 0xc8, 0xbc, 0x44, 0xd3, 0x1a, 0xbe,
  0xd2, 0xfc, 0xbf, 0xbd, 0x98, 0x44, 0x15, 0xbd, 0xd6, 0x6b, 0x56, 0x3f,
  0x1d, 0x89, 0x31, 0xbe, 0xd6, 0x1d, 0x0d, 0x3d, 0x72, 0x7f, 0xa9, 0x3e,
  0xa9, 0xca, 0x70, 0x3d, 0x22, 0xd7, 0x80, 0xbd, 0xc5, 0x64, 0x08, 0x3e,
  0xbd, 0xdd, 0xa1, 0xbe, 0x83, 0x78, 0xad, 0xbd, 0xd0, 0x62, 0x80, 0xbe,
  0xd9, 0xb3, 0x80, 0xbd, 0x77, 0x89, 0x58, 0xbe, 0xc9, 0x4d, 0x19, 0xbe,
  0x66, 0x9f, 0x4e, 0xbd, 0x0e, 0xf8, 0xf2, 0x3d, 0xb8, 0x16, 0x87, 0xbe,
  0xdc, 0x93, 0x2f, 0xbe, 0x89, 0x9a, 0xad, 0xbd, 0x51, 0x15, 0x0d, 0x3e,
  0x3d, 0x88, 0x30, 0xbe, 0x18, 0xa2, 0x7f, 0xbe, 0x51, 0x8e, 0x85, 0xbd,
  0x79, 0x80, 0x16, 0x3d, 0xa4, 0x9f, 0x2b, 0xbe, 0xd3, 0x14, 0x85, 0xbe,
  0x30, 0x94, 0x5c, 0x3a, 0x83, 0xf3, 0xb1, 0x3d, 0x61, 0x8f, 0x30, 0xbd,
  0x04, 0xa9, 0x80, 0xbe, 0x55, 0x78, 0x0b, 0xbf, 0x06, 0x3d, 0xd0, 0x3d,
  0x40, 0x18, 0xc7, 0xbe, 0x19, 0x33, 0x14, 0xbe, 0xef, 0xad, 0x09, 0xbe,
  0xa2, 0x9d, 0x0f, 0xbe, 0xaa, 0x25, 0xc0, 0x3b, 0x6c, 0x37, 0xaa, 0x3e,
  0x16, 0x0d, 0x81, 0xbd, 0x30, 0x58, 0x72, 0x3e, 0xfb, 0x34, 0x5f, 0xbe,
  0x5a, 0x51, 0x3b, 0xbe, 0x18, 0xfa, 0x46, 0x3d, 0x88, 0xf4, 0x86, 0xbc,
  0xd6, 0xb5, 0xcc, 0x3c, 0x73, 0x0f, 0xd4, 0xbd, 0xbc, 0xb6, 0xfb, 0xbd,
  0x7b, 0x81, 0x0a, 0xbd, 0x1c, 0x4a, 0x44, 0xbe, 0xe4, 0xd8, 0x39, 0xbe,
  0x58, 0x2f, 0xd9, 0xbd, 0x97, 0xd3, 0x12, 0x3d, 0x36, 0xc4, 0x23, 0x3d,
  0xda, 0xa7, 0x9e, 0xbd, 0x4c, 0x32, 0x9b, 0xbe, 0x13, 0xf8, 0x55, 0x3e,
  0x29, 0x82, 0xb4, 0xbe, 0x16, 0xb0, 0x11, 0xbe, 0x10, 0xc6, 0x4e, 0xbd,
  0xab, 0xb4, 0x1f, 0xbd, 0x3d, 0x63, 0x01, 0x3d, 0x61, 0x34, 0x39, 0xbf,
  0xd6, 0x5e, 0xdf, 0x3e, 0x7e, 0xe6, 0x08, 0x3c, 0xb5, 0x1c, 0xc8, 0xbe,
  0x5c, 0xe0, 0x6a, 0x3e, 0x98, 0x44, 0xd3, 0xbd, 0x45, 0x5e, 0x0d, 0xbf,
  0xa9, 0xea, 0xad, 0xbd, 0x1a, 0xda, 0xb6, 0x3c, 0x1f, 0x11, 0x94, 0xbd,
  0xa7, 0xe6, 0x85, 0x3c, 0xa4, 0xc7, 0x85, 0xbe, 0x2d, 0x35, 0x09, 0xbe,
  0xf5, 0xdd, 0x11, 0x3e, 0x97, 0x4c, 0x82, 0x3e, 0xfd, 0xa4, 0xcb, 0x3e,
  0xcd, 0xab, 0x1c, 0x3e, 0xed, 0x61, 0x0b, 0xbe, 0x80, 0xe0, 0x4a, 0xbe,
  0xe6, 0x1b, 0x09, 0x3e, 0x14, 0x5d, 0x32, 0xbe, 0x5c, 0x86, 0x05, 0xbe,
  0xb6, 0x00, 0x41, 0x3e, 0x37, 0x5c, 0x23, 0xbe, 0xb2, 0xba, 0xa7, 0xbc,
  0xe2, 0x3f, 0x1e, 0x3b, 0x73, 0xbc, 0x46, 0xbe, 0xff, 0xb7, 0xd0, 0x3d,
  0xd8, 0x31, 0x8f, 0xbd, 0x84, 0x3c, 0x5d, 0xbe, 0x6f, 0xea, 0xb8, 0xbe,
  0x0c, 0x8e, 0x58, 0xbe, 0xe2, 0xdd, 0xff, 0xff, 0x10, 0x00, 0x00, 0x00,
  0x0a, 0x00, 0x00, 0x00, 0x1c, 0x00, 0x00, 0x00, 0x38, 0x00, 0x00, 0x00,
  0x04, 0x00, 0x00, 0x00, 0x10, 0x00, 0x00, 0x00, 0x04, 0x00, 0x00, 0x00,
  0x01, 0x00, 0x00, 0x00, 0x08, 0x00, 0x00, 0x00, 0x1a, 0x00, 0x00, 0x00,
  0x73, 0x65, 0x71, 0x75, 0x65, 0x6e, 0x74, 0x69, 0x61, 0x6c, 0x2f, 0x63,
  0x6f, 0x6e, 0x76, 0x32, 0x64, 0x5f, 0x31, 0x2f, 0x43, 0x6f, 0x6e, 0x76,
  0x32, 0x44, 0x00, 0x00, 0x58, 0xdd, 0xff, 0xff, 0x62, 0xde, 0xff, 0xff,
  0x04, 0x00, 0x00, 0x00, 0x80, 0x01, 0x00, 0x00, 0xbc, 0x03, 0xab, 0x3e,
  0x3d, 0x29, 0x04, 0xbb, 0x27, 0x34, 0x78, 0xbd, 0x74, 0xbb, 0x87, 0x3d,
  0xf2, 0xb7, 0x36, 0x3d, 0xac, 0x54, 0xb9, 0x3d, 0xcd, 0xc9, 0x6e, 0xbe,
  0xd3, 0x0c, 0x21, 0xbd, 0x9c, 0xdc, 0xcb, 0x3c, 0x1e, 0xcc, 0x4e, 0xbe,
  0x47, 0xb9, 0xc2, 0xbd, 0xc3, 0xab, 0x78, 0x3d, 0xec, 0x18, 0x7e, 0xbd,
  0x61, 0x57, 0x13, 0xbe, 0xa5, 0xea, 0x81, 0x3b, 0x39, 0xec, 0x23, 0xbe,
  0x22, 0x1a, 0x37, 0xbe, 0x25, 0x27, 0xfc, 0xbd, 0xac, 0x59, 0xbe, 0x3b,
  0x58, 0x4d, 0xc0, 0xbc, 0x90, 0x59, 0x11, 0xbd, 0x89, 0x59, 0x3e, 0x3e,
  0x81, 0xab, 0x50, 0x3e, 0x54, 0xb4, 0x03, 0x3e, 0x71, 0x47, 0xa8, 0xbe,
  0x6e, 0x0e, 0x91, 0xbc, 0x1a, 0xa8, 0x80, 0x3e, 0x22, 0xb0, 0xd6, 0xbd,
  0xe0, 0x1c, 0xc4, 0x3d, 0x69, 0x8e, 0xcd, 0xbc, 0x9b, 0xa7, 0x6b, 0x3e,
  0xf4, 0x0f, 0x97, 0x3c, 0xfd, 0x3b, 0x04, 0xbe, 0xfc, 0x57, 0x0a, 0x3e,
  0x9f, 0x18, 0xa4, 0xbc, 0xdf, 0xae, 0x09, 0x3e, 0xc2, 0xe6, 0x5d, 0x3e,
  0xd2, 0x2a, 0x83, 0x3d, 0x5d, 0x0e, 0xac, 0x3e, 0x79, 0xfa, 0x1f, 0x3d,
  0x2f, 0x9a, 0x43, 0xbe, 0x43, 0x4d, 0x3f, 0xbe, 0x94, 0xac, 0x2c, 0xbe,
  0x2d, 0x74, 0xaf, 0x3e, 0xab, 0x43, 0x5d, 0xbd, 0x78, 0x2d, 0x5e, 0x3e,
  0x5d, 0xc5, 0x70, 0xbe, 0xd3, 0x7d, 0x44, 0xbe, 0xdc, 0x15, 0xc9, 0xbb,
  0x26, 0xb9, 0x7a, 0x3d, 0x9d, 0x8e, 0x3d, 0xbe, 0xf7, 0x52, 0x6f, 0xbb,
  0x5a, 0xb6, 0x7a, 0x3e, 0x9f, 0x0a, 0x96, 0xbe, 0xe3, 0x33, 0x8a, 0xbc,
  0xbf, 0x6c, 0x0a, 0xbe, 0xf0, 0x3b, 0x75, 0xbd, 0x7e, 0xbc, 0xdd, 0x3d,
  0x9d, 0xc9, 0x39, 0xbe, 0x7f, 0xee, 0xb1, 0x3e, 0x08, 0x80, 0x9a, 0x3d,
  0x65, 0x8a, 0xc4, 0xbd, 0xcd, 0x9f, 0x9c, 0xbd, 0xe6, 0x21, 0xc6, 0xbd,
  0x8f, 0x20, 0x53, 0xbe, 0xb8, 0xba, 0x62, 0x3d, 0x04, 0xaf, 0x95, 0x3e,
  0x06, 0x20, 0xad, 0x3e, 0x88, 0xc9, 0x26, 0xbe, 0xe3, 0xc2, 0xfa, 0x3d,
  0xe6, 0x2a, 0xd2, 0x3d, 0xe4, 0xfa, 0x67, 0x3e, 0x08, 0x42, 0xdf, 0x3c,
  0xc3, 0xa8, 0xac, 0xbc, 0x38, 0xe9, 0x10, 0xbe, 0x16, 0x77, 0xb6, 0x3e,
  0x8f, 0x5a, 0x4c, 0x3e, 0x81, 0x2e, 0x7a, 0x3e, 0x99, 0xb2, 0x16, 0xbe,
  0x5e, 0x58, 0x28, 0x3e, 0x58, 0xa5, 0xbe, 0x3c, 0x8e, 0x58, 0x3e, 0xbe,
  0xab, 0x32, 0x7c, 0xbe, 0x57, 0xb0, 0x16, 0xbe, 0x07, 0x85, 0x4d, 0x3a,
  0x13, 0xdf, 0xb6, 0xbc, 0x68, 0xa9, 0xa8, 0xbc, 0x31, 0x96, 0x4a, 0xbd,
  0x6b, 0x0b, 0x4a, 0x3c, 0x37, 0x84, 0xfa, 0xbd, 0x2a, 0x50, 0xbb, 0x3e,
  0xe0, 0x2f, 0x45, 0x3d, 0x34, 0xc8, 0x14, 0x3d, 0x4c, 0xcb, 0x46, 0xbd,
  0x01, 0x22, 0x84, 0xbd, 0xe9, 0xe2, 0x85, 0x3e, 0xba, 0xdf, 0xff, 0xff,
  0x10, 0x00, 0x00, 0x00, 0x09, 0x00, 0x00, 0x00, 0x1c, 0x00, 0x00, 0x00,
  0x38, 0x00, 0x00, 0x00, 0x04, 0x00, 0x00, 0x00, 0x08, 0x00, 0x00, 0x00,
  0x04, 0x00, 0x00, 0x00, 0x03, 0x00, 0x00, 0x00, 0x01, 0x00, 0x00, 0x00,
  0x18, 0x00, 0x00, 0x00, 0x73, 0x65, 0x71, 0x75, 0x65, 0x6e, 0x74, 0x69,
  0x61, 0x6c, 0x2f, 0x63, 0x6f, 0x6e, 0x76, 0x32, 0x64, 0x2f, 0x43, 0x6f,
  0x6e, 0x76, 0x32, 0x44, 0x00, 0x00, 0x00, 0x00, 0x30, 0xdf, 0xff, 0xff,
  0x3a, 0xe0, 0xff, 0xff, 0x04, 0x00, 0x00, 0x00, 0x00, 0x01, 0x00, 0x00,
  0x3b, 0x5c, 0x6b, 0x3e, 0x4f, 0xfa, 0x20, 0x3e, 0xdb, 0x21, 0x2f, 0x3e,
  0xb1, 0xb8, 0x2e, 0x3e, 0xe2, 0x53, 0x5e, 0x3e, 0x34, 0x83, 0xd3, 0x3d,
  0xe0, 0xba, 0x8c, 0xbe, 0x34, 0x77, 0x7e, 0xbe, 0xee, 0x90, 0x0e, 0x3c,
  0x2b, 0xa6, 0x60, 0xbe, 0x0e, 0x8c, 0x97, 0xbe, 0xec, 0x02, 0xae, 0x3e,
  0xaf, 0xc7, 0x6c, 0xbe, 0x6a, 0x17, 0x2a, 0xbe, 0xa9, 0xf3, 0x2c, 0x3e,
  0x91, 0x58, 0xc3, 0xbc, 0x47, 0x6d, 0x78, 0x3e, 0x69, 0x83, 0x68, 0x3e,
  0xde, 0x02, 0x47, 0x3e, 0xd4, 0xc9, 0x4a, 0x3e, 0x7b, 0xec, 0x2d, 0x3e,
  0xc4, 0xaa, 0xcf, 0x3d, 0x2f, 0x2f, 0x63, 0xbe, 0x8f, 0x52, 0xe8, 0xbe,
  0xf3, 0x71, 0x92, 0x3d, 0x6f, 0x7a, 0xd0, 0x3d, 0xce, 0x16, 0x19, 0xbe,
  0xd9, 0xad, 0x2b, 0x3e, 0x69, 0xb9, 0xd2, 0xbe, 0x31, 0x81, 0x45, 0xbd,
  0xd6, 0xbb, 0x97, 0x3e, 0x91, 0x39, 0x99, 0xbd, 0x03, 0x7f, 0xb4, 0x3e,
  0x83, 0xd6, 0x5c, 0x3e, 0x41, 0xfe, 0x96, 0x3e, 0x41, 0xe5, 0xab, 0x3d,
  0x29, 0x0e, 0xd0, 0x3d, 0x6a, 0x04, 0xb9, 0x3d, 0xf5, 0xe3, 0xff, 0xbe,
  0x9c, 0x7d, 0x08, 0xbd, 0x3d, 0x56, 0x6b, 0x3d, 0xc8, 0xf3, 0x0d, 0xbe,
  0x0f, 0x0f, 0x7a, 0x3d, 0xa4, 0xc0, 0xab, 0xbe, 0xbe, 0x63, 0x8f, 0x3e,
  0x1f, 0xb5, 0xa8, 0xbe, 0x57, 0x47, 0xcd, 0x3d, 0x99, 0x08, 0xac, 0xbc,
  0x28, 0xc0, 0x9c, 0x3e, 0x29, 0x78, 0x39, 0x3e, 0x77, 0x96, 0x85, 0x3e,
  0x13, 0xeb, 0xcb, 0x3d, 0xa8, 0xbb, 0x07, 0x3e, 0xf3, 0xb6, 0x1e, 0x3e,
  0xe6, 0xf7, 0x9b, 0xbe, 0xd5, 0x63, 0xa3, 0xbe, 0xcc, 0xdb, 0xf3, 0x3d,
  0xbc, 0x63, 0x07, 0xbe, 0x36, 0x98, 0x7f, 0xbe, 0x04, 0x81, 0x00, 0xbf,
  0x18, 0x4e, 0x96, 0xbc, 0xcd, 0x58, 0xe9, 0x3d, 0x48, 0x02, 0x9f, 0x3e,
  0x5d, 0x00, 0x92, 0xbd, 0x12, 0xe1, 0xff, 0xff, 0x10, 0x00, 0x00, 0x00,
  0x08, 0x00, 0x00, 0x00, 0x14, 0x00, 0x00, 0x00, 0x30, 0x00, 0x00, 0x00,
  0x02, 0x00, 0x00, 0x00, 0x04, 0x00, 0x00, 0x00, 0x10, 0x00, 0x00, 0x00,
  0x19, 0x00, 0x00, 0x00, 0x73, 0x65, 0x71, 0x75, 0x65, 0x6e, 0x74, 0x69,
  0x61, 0x6c, 0x2f, 0x64, 0x65, 0x6e, 0x73, 0x65, 0x5f, 0x31, 0x2f, 0x4d,
  0x61, 0x74, 0x4d, 0x75, 0x6c, 0x00, 0x00, 0x00, 0x80, 0xe0, 0xff, 0xff,
  0x8a, 0xe1, 0xff, 0xff, 0x04, 0x00, 0x00, 0x00, 0x00, 0x1c, 0x00, 0x00,
  0x55, 0x90, 0xa8, 0x3d, 0x3b, 0xd9, 0x87, 0x3d, 0xeb, 0x74, 0x01, 0x3e,
  0xda, 0x12, 0xca, 0x3e, 0x27, 0x15, 0x17, 0xbf, 0x8b, 0xe6, 0xf4, 0xbe,
  0xdb, 0x5f, 0x34, 0xbe, 0x07, 0x61, 0x03, 0x3e, 0x29, 0x14, 0x7a, 0xbe,
  0xb6, 0x56, 0x2d, 0x3e, 0x6a, 0x9b, 0x8c, 0xbc, 0x35, 0x28, 0x26, 0x3e,
  0x3a, 0x51, 0x09, 0xbf, 0x7c, 0x1b, 0x0f, 0xbf, 0x7c, 0xf5, 0x83, 0x3d,
  0xd1, 0xd1, 0x11, 0xbf, 0x53, 0x28, 0x47, 0x3d, 0x91, 0xa8, 0x17, 0x3d,
  0xbb, 0xc5, 0xdd, 0x3e, 0xa9, 0xce, 0xf9, 0x3e, 0x3e, 0x80, 0xb2, 0xbe,
  0xf0, 0x23, 0x36, 0x3e, 0x33, 0xf7, 0x26, 0x3e, 0xc3, 0x74, 0x98, 0x3d,
  0x28, 0x4d, 0xf4, 0xbe, 0x13, 0x0c, 0x1d, 0x3e, 0x1c, 0x84, 0xc3, 0x3e,
  0x0c, 0xf8, 0x16, 0x3e, 0x4a, 0xe8, 0xb9, 0xbe, 0x25, 0x7e, 0xc6, 0xbd,
  0x5f, 0xd4, 0x36, 0xbe, 0xe2, 0x94, 0xb0, 0xbe, 0x17, 0xcf, 0xe3, 0x3c,
  0x81, 0x24, 0x78, 0xbd, 0x1c, 0xe2, 0xdc, 0x3e, 0x8c, 0x84, 0xcf, 0x3e,
  0xa2, 0x26, 0x15, 0xbd, 0x22, 0xcc, 0x00, 0xbe, 0xfe, 0xbf, 0xae, 0x3d,
  0x99, 0x9b, 0x2d, 0x3d, 0x2d, 0x2d, 0x5f, 0x3e, 0x58, 0x3d, 0x17, 0x3d,
  0x72, 0xb7, 0x98, 0x3e, 0x79, 0x2f, 0x23, 0x3e, 0xb7, 0xa7, 0xc6, 0xbd,
  0x89, 0x2e, 0x44, 0xbe, 0x6b, 0x4f, 0xff, 0xbd, 0x7f, 0xdf, 0x72, 0x3d,
  0x3a, 0x28, 0x98, 0xbc, 0x55, 0x96, 0x3e, 0xbc, 0xb9, 0x91, 0xb1, 0x3e,
  0xc3, 0xc0, 0xd7, 0x3e, 0xa2, 0x94, 0xbe, 0xbe, 0x6b, 0x9b, 0x26, 0xbd,
  0x19, 0xfb, 0x92, 0x3c, 0x4a, 0xed, 0x62, 0x3d, 0x36, 0x76, 0xf8, 0x3d,
  0x48, 0xad, 0x34, 0x3e, 0x62, 0x50, 0x9e, 0x3e, 0xa7, 0xbc, 0xe9, 0x3e,
  0xff, 0x06, 0x30, 0xbd, 0x10, 0x7a, 0xc0, 0xbe, 0x25, 0x9d, 0x4f, 0xbe,
  0x3e, 0x95, 0x70, 0xbd, 0xd0, 0x78, 0x7f, 0xbd, 0x42, 0x32, 0x68, 0xbe,
  0x70, 0x2f, 0x32, 0x3e, 0x3d, 0x6e, 0xcd, 0x3e, 0x19, 0x19, 0xc9, 0xbe,
  0x4f, 0xf3, 0xf8, 0xbd, 0x24, 0xb4, 0xc5, 0x3d, 0x3d, 0xd8, 0x64, 0xbd,
  0x19, 0x42, 0x4d, 0x3d, 0x1a, 0x98, 0x5b, 0xbe, 0xe3, 0xa8, 0xba, 0x3d,
  0xc8, 0x37, 0x32, 0x3e, 0x68, 0x6c, 0x1a, 0xbc, 0x19, 0x2a, 0xe0, 0xbe,
  0x94, 0xfd, 0x1f, 0xbe, 0x7d, 0x96, 0x06, 0xbc, 0xe1, 0x78, 0xcc, 0x3b,
  0xea, 0x09, 0x1f, 0xbe, 0xc0, 0x34, 0x51, 0x3e, 0x8c, 0x5f, 0x1b, 0x3f,
  0xef, 0xe0, 0x08, 0xbe, 0x53, 0x9b, 0x12, 0xbe, 0xbd, 0xc8, 0x80, 0xbc,
  0x2e, 0xda, 0x34, 0xbd, 0x35, 0xc8, 0x8b, 0x3d, 0x1a, 0xc1, 0x4f, 0x3e,
  0x37, 0x68, 0x82, 0x3d, 0x7d, 0xde, 0xe7, 0x3e, 0xd1, 0xbf, 0xd2, 0xbe,
  0xb8, 0x55, 0x0e, 0xbf, 0x9e, 0x7b, 0xbb, 0xbe, 0x75, 0xd9, 0xa8, 0xbd,
  0xf3, 0x7a, 0x0f, 0xbe, 0xb9, 0x20, 0x4a, 0x3d, 0xa3, 0x2a, 0x76, 0x3e,
  0xe3, 0x0f, 0x55, 0x3e, 0xf9, 0xf4, 0x74, 0xbe, 0x5a, 0x3c, 0x7d, 0xbe,
  0xc9, 0x89, 0xb1, 0x3d, 0x87, 0xd7, 0x24, 0xbe, 0x10, 0x19, 0x41, 0x3e,
  0x79, 0x71, 0x0e, 0x3e, 0x59, 0x29, 0x7f, 0xbe, 0x80, 0x44, 0x9d, 0xbc,
  0xa1, 0x3c, 0xaf, 0xbe, 0x5b, 0x69, 0xe3, 0xbc, 0xc5, 0xe8, 0x26, 0xbe,
  0x20, 0x2c, 0x79, 0xbd, 0xa0, 0x56, 0xef, 0x3d, 0x00, 0xa1, 0x31, 0xbe,
  0x42, 0xd5, 0x5d, 0xbd, 0xa0, 0x36, 0xa9, 0x3e, 0x1d, 0x58, 0x1a, 0xbf,
  0x1c, 0x4e, 0x88, 0x3d, 0xce, 0xd0, 0x67, 0x3d, 0x1d, 0x5b, 0x82, 0x3d,
  0xc1, 0xda, 0x0f, 0xbf, 0x1b, 0x30, 0xe0, 0x3d, 0x94, 0xf8, 0x57, 0x3e,
  0xb7, 0xed, 0x9c, 0x3e, 0x69, 0x1d, 0x58, 0x3d, 0xb4, 0xc4, 0xb8, 0xbe,
  0xbd, 0x37, 0xb7, 0x3d, 0x53, 0x2e, 0xeb, 0x3d, 0xb5, 0x70, 0x15, 0x3c,
  0x53, 0x7e, 0x1c, 0x3b, 0x1d, 0x91, 0x0a, 0xbe, 0x81, 0x02, 0xaa, 0x3e,
  0x37, 0x33, 0x21, 0xbe, 0x0f, 0xdb, 0x06, 0x3d, 0x22, 0xfd, 0xea, 0x3d,
  0x2a, 0x07, 0x33, 0x39, 0x79, 0xc5, 0x8b, 0xbe, 0xd7, 0x7a, 0x74, 0xbc,
  0xbc, 0xe7, 0x6b, 0xbe, 0x34, 0x20, 0xa2, 0x3c, 0x3a, 0xe2, 0xb2, 0xbc,
  0x06, 0xce, 0x66, 0xbe, 0xc1, 0x2a, 0x8c, 0xbc, 0x16, 0xb5, 0x20, 0x3e,
  0x00, 0x5a, 0xf1, 0x3c, 0x48, 0xeb, 0xd5, 0xbd, 0x01, 0x7c, 0x31, 0x3e,
  0x5e, 0x99, 0xdf, 0x3e, 0x78, 0x62, 0x1d, 0x3e, 0xfb, 0xd1, 0x17, 0xbe,
  0xe4, 0xa2, 0xa0, 0xbb, 0xd2, 0x46, 0x3a, 0xbd, 0xee, 0xc5, 0xad, 0x3b,
  0xfd, 0xde, 0xae, 0xbd, 0xc9, 0xcb, 0xfe, 0xbd, 0x00, 0xe4, 0x5f, 0xbc,
  0x97, 0x48, 0xb4, 0xbb, 0xb4, 0x3c, 0x4b, 0xbe, 0x9e, 0x6c, 0x8d, 0x3c,
  0x30, 0x18, 0x42, 0x3d, 0x70, 0x07, 0x46, 0x3d, 0xe2, 0x24, 0x26, 0x3d,
  0x04, 0x79, 0x90, 0x3e, 0x58, 0x1a, 0xaf, 0x3e, 0xc3, 0x6c, 0x94, 0x3c,
  0xe5, 0x42, 0x81, 0xbe, 0x65, 0x82, 0xb9, 0xbb, 0xae, 0x87, 0x9f, 0xbd,
  0xae, 0xd9, 0x18, 0x3d, 0x35, 0x44, 0x51, 0x3a, 0xf6, 0x5e, 0x00, 0xbe,
  0x94, 0xbb, 0x28, 0x3d, 0x9d, 0x1e, 0x45, 0xbd, 0xc3, 0xd5, 0x83, 0xbe,
  0x14, 0x67, 0x01, 0xbe, 0x23, 0xdc, 0x96, 0xbe, 0xf0, 0x12, 0x91, 0xbc,
  0x13, 0x97, 0xa8, 0xbd, 0x2c, 0x03, 0x8a, 0x3e, 0xf8, 0x00, 0xee, 0x3e,
  0x6d, 0xba, 0x34, 0xbd, 0x1f, 0x98, 0xf4, 0xbd, 0x32, 0xbe, 0xae, 0x3d,
  0xcf, 0x77, 0x1a, 0xbd, 0xcc, 0xfa, 0x3a, 0x3e, 0xdd, 0x63, 0x58, 0xbc,
  0x45, 0x5e, 0x4f, 0x3e, 0xfd, 0x15, 0xc8, 0x3b, 0x3f, 0xc2, 0x91, 0xbc,
  0xa5, 0x04, 0x58, 0xbe, 0xb9, 0x1a, 0xdf, 0xbd, 0xa1, 0x4a, 0x93, 0x3e,
  0xb1, 0xd7, 0x0d, 0xbe, 0xb8, 0x20, 0x84, 0xbd, 0x9b, 0x20, 0x74, 0x3e,
  0x25, 0x81, 0x42, 0x3f, 0x4b, 0x47, 0xbe, 0xbe, 0x07, 0x60, 0x2e, 0x3d,
  0xea, 0x35, 0x0d, 0x3d, 0xd5, 0x17, 0xe6, 0x3c, 0xec, 0x1a, 0x75, 0x3c,
  0x82, 0xf1, 0x72, 0x3e, 0x0e, 0xa7, 0x6d, 0x3e, 0xde, 0x6e, 0xe5, 0xbd,
  0x83, 0x54, 0xc7, 0x3b, 0x30, 0x54, 0x81, 0xbe, 0xba, 0x46, 0xa8, 0xbd,
  0xdf, 0xe7, 0x4a, 0x3e, 0x3c, 0xb3, 0x76, 0x3d, 0x86, 0x94, 0xae, 0xbc,
  0x0e, 0x7f, 0x6d, 0x3e, 0xa5, 0x05, 0x9c, 0xbe, 0x54, 0x4c, 0x7b, 0xbe,
  0x5d, 0xcc, 0xc2, 0x3c, 0xfd, 0x29, 0xd2, 0x3d, 0xfe, 0xef, 0x13, 0x3d,
  0x79, 0x24, 0x31, 0x3e, 0xdb, 0xc8, 0xc3, 0x3d, 0xa8, 0x89, 0x81, 0x3d,
  0xe8, 0xfb, 0x99, 0x3c, 0xf2, 0x99, 0xd2, 0xbc, 0x79, 0xd9, 0x98, 0xbd,
  0xe7, 0x02, 0x18, 0xbd, 0x04, 0x37, 0xdc, 0x3d, 0x6b, 0x72, 0x34, 0x3d,
  0x7c, 0x8f, 0xf2, 0xbd, 0x3f, 0x65, 0x20, 0x3e, 0x26, 0x80, 0x90, 0x3e,
  0x1b, 0x5e, 0x62, 0xbd, 0xe8, 0x9a, 0xab, 0xbe, 0x08, 0xb9, 0x36, 0xbe,
  0x54, 0x97, 0x82, 0x3d, 0x44, 0xfc, 0x01, 0x3f, 0x8e, 0x23, 0x23, 0x3d,
  0xae, 0xfd, 0x5f, 0xbe, 0xf7, 0x1f, 0xe1, 0xbd, 0x0c, 0x61, 0x3c, 0x3c,
  0xc7, 0xc9, 0x23, 0xbf, 0x52, 0x5d, 0x56, 0x3e, 0x97, 0xfe, 0xce, 0xbe,
  0x20, 0x08, 0x24, 0x3e, 0x26, 0xe5, 0xd2, 0xbd, 0x77, 0x8f, 0x8a, 0x3d,
  0x41, 0x47, 0xb2, 0x3e, 0x6e, 0x77, 0xed, 0x3c, 0x1c, 0x49, 0x07, 0xbe,
  0xfa, 0xfc, 0xbe, 0x3d, 0x5d, 0x18, 0xb8, 0x3d, 0xd4, 0xda, 0x3d, 0x3e,
  0x74, 0xa9, 0xb2, 0xbd, 0xae, 0x30, 0x80, 0xba, 0xf1, 0x48, 0x7d, 0x3b,
  0xec, 0x0b, 0x4f, 0xbd, 0x0e, 0x1c, 0x95, 0xbe, 0xfc, 0xc5, 0x36, 0x3e,
  0x66, 0x15, 0x41, 0xbe, 0xef, 0xc7, 0xfe, 0x3d, 0x41, 0xf0, 0x23, 0xbe,
  0xc6, 0x95, 0xb9, 0x3d, 0x53, 0x79, 0x9b, 0x3e, 0x11, 0x49, 0x88, 0xbb,
  0xad, 0xf8, 0x88, 0xbe, 0x91, 0x12, 0x4e, 0xbd, 0xaf, 0x83, 0x99, 0x3d,
  0x10, 0x5a, 0xa7, 0x3d, 0x58, 0x67, 0xd5, 0x3d, 0x7b, 0xc3, 0x78, 0x3d,
  0x36, 0x28, 0x26, 0xbd, 0xdc, 0x78, 0x54, 0xbd, 0x89, 0x83, 0xd2, 0xbe,
  0x3e, 0x70, 0x30, 0x3e, 0x3c, 0x5f, 0xd1, 0x3d, 0x6f, 0x05, 0x8a, 0xbb,
  0x5d, 0xa3, 0x18, 0x3d, 0x49, 0x51, 0x6e, 0x3d, 0xe2, 0xf8, 0x10, 0x3f,
  0x86, 0x1a, 0x56, 0xbd, 0x17, 0xd0, 0xa8, 0xbe, 0xd0, 0x15, 0x79, 0x3c,
  0x14, 0xd3, 0x66, 0x3d, 0x79, 0x12, 0x72, 0x3d, 0x2a, 0x66, 0xd1, 0x3e,
  0xa5, 0xc5, 0xe6, 0x3d, 0xa8, 0xdf, 0x1a, 0x3e, 0x20, 0x6c, 0xfb, 0x3c,
  0xe3, 0x18, 0xd4, 0xbe, 0x2f, 0xa6, 0xaa, 0x3c, 0x7c, 0xcd, 0x61, 0xbd,
  0x86, 0x6c, 0x94, 0x3d, 0x51, 0x76, 0x42, 0xbe, 0xde, 0x80, 0x09, 0xbd,
  0x65, 0x2a, 0x89, 0x3e, 0xab, 0x19, 0x02, 0xbe, 0x6d, 0x75, 0x16, 0xbe,
  0x24, 0x2d, 0x1f, 0xbd, 0x44, 0x41, 0x6f, 0x3d, 0xe4, 0x2f, 0xe7, 0x3d,
  0xba, 0x25, 0x46, 0x3e, 0x01, 0x83, 0x0c, 0x3d, 0x18, 0xe0, 0xd5, 0xbb,
  0x2c, 0x21, 0x13, 0x3d, 0xcc, 0x65, 0xcd, 0xbe, 0x36, 0x6b, 0xb6, 0xbd,
  0x76, 0x82, 0x8f, 0x3c, 0xec, 0x58, 0x89, 0x3d, 0x7b, 0x4a, 0xe2, 0xbd,
  0xdc, 0xb2, 0x0b, 0xbd, 0xa3, 0xd1, 0x90, 0x3e, 0xa7, 0x57, 0x71, 0xbe,
  0x40, 0x82, 0x10, 0xbe, 0x71, 0xfd, 0xf9, 0xbd, 0x91, 0xb8, 0xda, 0x3b,
  0x21, 0xc5, 0xcf, 0x3d, 0x2f, 0x83, 0x8d, 0x3d, 0xd6, 0x88, 0x12, 0xbd,
  0x72, 0xcb, 0xdf, 0x3d, 0xc2, 0x8b, 0xd8, 0x3c, 0xbe, 0xb9, 0xb9, 0xbe,
  0xc0, 0xf7, 0xb8, 0xbc, 0xe2, 0x17, 0xf6, 0xbd, 0x0a, 0x6e, 0x5c, 0xbd,
  0xa8, 0xb0, 0x5f, 0xbd, 0x67, 0xf5, 0x29, 0x3b, 0xfe, 0xba, 0x9d, 0xbb,
  0x34, 0x64, 0x79, 0x3d, 0x8b, 0xce, 0x66, 0xbd, 0xac, 0x73, 0xa6, 0xbd,
  0x6b, 0x85, 0xca, 0x3a, 0x2c, 0x9d, 0x0a, 0x3e, 0x68, 0x64, 0x02, 0x3d,
  0xca, 0x04, 0x7f, 0x3a, 0xb2, 0x89, 0xc8, 0x3c, 0xa5, 0x92, 0x27, 0xbc,
  0x18, 0x6a, 0x1c, 0xbd, 0x38, 0x44, 0xdd, 0x3c, 0xd6, 0xe5, 0x7c, 0xbd,
  0xcd, 0xfe, 0x84, 0xbe, 0x10, 0x6b, 0x91, 0xbe, 0xac, 0xa2, 0x26, 0xbd,
  0x59, 0xe5, 0x88, 0xbd, 0x1c, 0x47, 0x8a, 0xbe, 0x6b, 0xd2, 0xc8, 0x3d,
  0xdc, 0xca, 0x9d, 0x3d, 0x9d, 0x95, 0x48, 0x3e, 0x8d, 0xcd, 0xe1, 0xbe,
  0xbc, 0x24, 0x39, 0x3d, 0xfc, 0x1b, 0xce, 0x3e, 0x6c, 0x51, 0xb6, 0xbd,
  0xa4, 0x6a, 0x59, 0x3e, 0xdf, 0x51, 0x86, 0xbd, 0x0d, 0xf5, 0x66, 0xbd,
  0x7f, 0x5c, 0x88, 0x3e, 0x9d, 0x04, 0x3f, 0xbe, 0x67, 0x4d, 0x30, 0xbc,
  0x4f, 0xd9, 0x9d, 0xbe, 0xc8, 0xb2, 0x1e, 0xbe, 0x06, 0xb3, 0x70, 0x3c,
  0x89, 0x0d, 0x74, 0xbc, 0xc9, 0x3c, 0x9b, 0x3e, 0xf3, 0xd3, 0xa6, 0x3d,
  0xbc, 0x12, 0xce, 0xbc, 0x8a, 0xc8, 0x08, 0x3e, 0x16, 0xbc, 0x40, 0xbe,
  0x49, 0x89, 0x1d, 0x3d, 0x62, 0x9e, 0x87, 0xbe, 0x2c, 0x58, 0x83, 0xbe,
  0x81, 0xbf, 0xcf, 0x3d, 0x38, 0x74, 0x6f, 0x3e, 0x14, 0x58, 0xe0, 0x3c,
  0xea, 0xdb, 0x79, 0xbd, 0x8d, 0xfb, 0x30, 0xbd, 0xcb, 0xba, 0x23, 0x3e,
  0xc5, 0x58, 0x83, 0x3e, 0x4d, 0x26, 0xd7, 0xbe, 0x11, 0x57, 0x93, 0xbe,
  0x81, 0x7d, 0xe4, 0xbd, 0x56, 0xe4, 0x84, 0x3e, 0xaa, 0x37, 0x26, 0x3c,
  0x9d, 0xf9, 0x82, 0xbe, 0x23, 0xee, 0x83, 0xbc, 0xc6, 0x61, 0xea, 0xbe,
  0xc6, 0xfb, 0x25, 0xbc, 0xce, 0xbb, 0x41, 0x3e, 0x13, 0x94, 0x33, 0x3e,
  0x18, 0xa5, 0xc7, 0xbb, 0x61, 0x82, 0x03, 0xbe, 0xa7, 0x10, 0xae, 0x3c,
  0xb9, 0xb7, 0xbe, 0xbe, 0xeb, 0x13, 0x08, 0xbb, 0x99, 0xbb, 0xc2, 0xbe,
  0x1c, 0x5e, 0xad, 0xbe, 0x07, 0x32, 0xef, 0xbd, 0xee, 0xef, 0x08, 0x3e,
  0x8f, 0xa5, 0xa7, 0xbd, 0xed, 0xa8, 0xd5, 0xbe, 0xd4, 0x8c, 0x24, 0xbf,
  0x03, 0x56, 0x5c, 0xbe, 0x0f, 0x4f, 0xf1, 0xbd, 0x42, 0x48, 0x69, 0x3d,
  0x16, 0x62, 0xc2, 0xbd, 0xab, 0xd4, 0x89, 0xbc, 0x2c, 0x4e, 0x75, 0xbe,
  0x0a, 0x0f, 0x27, 0xbd, 0xaf, 0x45, 0x68, 0xbe, 0x7e, 0x29, 0x80, 0xbd,
  0x6e, 0x5f, 0x4b, 0xbe, 0xc5, 0xbd, 0xb5, 0xbe, 0xc1, 0xd1, 0x3c, 0xbd,
  0xb6, 0xc7, 0xf3, 0x3d, 0x22, 0x81, 0x19, 0xbe, 0x3a, 0x0c, 0xde, 0xbe,
  0xa0, 0xf4, 0x49, 0xbe, 0xd3, 0x35, 0xf2, 0xbd, 0x7c, 0x24, 0xfe, 0xbc,
  0x87, 0x6a, 0x26, 0x3c, 0x52, 0xcf, 0x52, 0x3e, 0xdb, 0x0a, 0x1f, 0x3c,
  0x82, 0x5b, 0xe8, 0x3c, 0xc0, 0x5c, 0x55, 0xbe, 0x35, 0x3a, 0x89, 0xbb,
  0x49, 0x6a, 0xc1, 0x3d, 0x21, 0x65, 0x53, 0xbe, 0xf1, 0x55, 0x48, 0xbc,
  0x1d, 0xb4, 0x0f, 0xbe, 0x98, 0x8b, 0x03, 0x3e, 0x4c, 0x93, 0x35, 0x3d,
  0xec, 0x06, 0x06, 0xbf, 0xb3, 0x10, 0x9a, 0x3c, 0x3d, 0xdf, 0x32, 0xbe,
  0x0b, 0xf8, 0xdf, 0x3d, 0xc3, 0x6b, 0xe3, 0x3b, 0x18, 0x37, 0x30, 0xbd,
  0x8d, 0xc1, 0xed, 0xbc, 0x2f, 0xbb, 0x18, 0xbd, 0xaf, 0x42, 0x8d, 0xbc,
  0x9e, 0x52, 0xa3, 0xbe, 0x30, 0x3b, 0x5e, 0xbd, 0x53, 0x62, 0x84, 0xbd,
  0x93, 0xc9, 0x9a, 0xbe, 0x6a, 0xbc, 0x8c, 0xbd, 0xa2, 0x7a, 0xc4, 0x3d,
  0xca, 0x25, 0x11, 0x3e, 0x83, 0xef, 0x13, 0x3c, 0x50, 0xc7, 0x0a, 0xbe,
  0x5e, 0xd3, 0xce, 0xbd, 0x29, 0x10, 0xc6, 0x3d, 0x42, 0x6c, 0x06, 0x3d,
  0xd7, 0x50, 0xd8, 0xbd, 0xdb, 0x28, 0xf1, 0xbd, 0x4a, 0x85, 0x41, 0x3e,
  0x2e, 0xc4, 0x15, 0x3c, 0x97, 0x44, 0x96, 0xbd, 0xc6, 0x34, 0xf9, 0x3d,
  0x5a, 0x09, 0x1a, 0x3c, 0x44, 0xec, 0x99, 0x3d, 0x20, 0x69, 0x34, 0xbe,
  0x5a, 0x98, 0x67, 0xbe, 0x82, 0xdf, 0x62, 0x3d, 0x4b, 0xd6, 0xe7, 0xbe,
  0x7c, 0xac, 0x00, 0x3e, 0x12, 0x3e, 0x87, 0xbe, 0x54, 0xd6, 0xbd, 0x3e,
  0x86, 0x53, 0xf5, 0xbe, 0x7c, 0x26, 0x4e, 0xbe, 0xa7, 0x0e, 0xb5, 0x3d,
  0x8b, 0x43, 0xe5, 0x3d, 0x44, 0x4b, 0xd8, 0x3d, 0xf5, 0xb5, 0x6d, 0xbe,
  0x31, 0xfa, 0x8c, 0x3d, 0x1a, 0x84, 0xb8, 0x3d, 0xef, 0xa9, 0x44, 0x3d,
  0x88, 0x7f, 0x20, 0xbe, 0xbe, 0x1c, 0xc5, 0xbe, 0x85, 0xe1, 0x80, 0xbe,
  0xe8, 0x45, 0xce, 0xbe, 0x6f, 0xaf, 0xce, 0x3d, 0x84, 0xa2, 0x7e, 0xbc,
  0x34, 0x4d, 0x4a, 0x3e, 0xe5, 0xeb, 0x7f, 0xbe, 0xa2, 0x35, 0x07, 0x3c,
  0x9d, 0xee, 0x47, 0xbd, 0x7e, 0x2f, 0xa6, 0x3e, 0x97, 0xff, 0x7b, 0x3d,
  0x48, 0x44, 0x23, 0xbe, 0x4c, 0x03, 0x53, 0xbc, 0x41, 0xc1, 0x92, 0x3e,
  0x72, 0x14, 0x9b, 0x3e, 0x97, 0xff, 0x80, 0xbd, 0xd5, 0xec, 0x17, 0xbb,
  0xe5, 0x66, 0x20, 0x3e, 0x3d, 0xef, 0xa4, 0xbe, 0x81, 0xaf, 0x12, 0x3e,
  0x9c, 0xca, 0x7b, 0xbc, 0xed, 0x02, 0x1c, 0x3d, 0x21, 0x50, 0x4a, 0x3c,
  0x86, 0x2a, 0x1b, 0xbe, 0x10, 0x77, 0xab, 0x3c, 0x97, 0x34, 0x1d, 0x3e,
  0xd0, 0xbd, 0x9e, 0x3d, 0xf6, 0x4c, 0x18, 0xbe, 0xc1, 0x17, 0xaa, 0x3b,
  0x7e, 0x97, 0x85, 0x3e, 0x2a, 0xf7, 0x6f, 0x3e, 0x89, 0xb9, 0xff, 0x3c,
  0xe3, 0xd6, 0xdd, 0x3d, 0x62, 0x58, 0xa7, 0x3d, 0x01, 0x25, 0x8f, 0xbe,
  0x90, 0x15, 0x2b, 0x3e, 0x9d, 0xfa, 0x13, 0xbc, 0xca, 0xcd, 0x9e, 0x3d,
  0x6a, 0x8f, 0x83, 0x3e, 0xe6, 0x32, 0x7e, 0x3e, 0xe0, 0x74, 0xf5, 0xbd,
  0xf2, 0x5a, 0x38, 0x3e, 0x27, 0xb6, 0xa4, 0xbd, 0x10, 0x90, 0x34, 0xbe,
  0x21, 0xda, 0x7f, 0x3e, 0x4e, 0xc1, 0xcd, 0x3d, 0xac, 0x0f, 0x8b, 0x3e,
  0x2b, 0x13, 0x92, 0x3c, 0x74, 0x25, 0x58, 0x3c, 0xd5, 0x07, 0xde, 0x3c,
  0xf8, 0x48, 0xba, 0xbe, 0x6a, 0xb4, 0x45, 0x3e, 0x79, 0x54, 0xd1, 0xbd,
  0x88, 0x31, 0x48, 0x3e, 0xef, 0x32, 0x14, 0xbe, 0x68, 0x10, 0x94, 0xbc,
  0xab, 0x33, 0x36, 0xbe, 0x92, 0x7e, 0x72, 0x3e, 0x25, 0xae, 0xc7, 0xbe,
  0x66, 0x91, 0x56, 0xbe, 0x57, 0x01, 0x83, 0xbe, 0x0f, 0xa8, 0x1d, 0x3e,
  0xe4, 0xee, 0x9e, 0x3d, 0x3d, 0xa4, 0xee, 0xbd, 0x68, 0xc3, 0x19, 0x3e,
  0x3d, 0x43, 0x6d, 0xbd, 0x14, 0x6c, 0x40, 0xbe, 0x6b, 0xe9, 0x1d, 0x3e,
  0x62, 0xaa, 0xb3, 0x3b, 0xcd, 0x1a, 0xf3, 0x3d, 0xfc, 0x50, 0x8a, 0xbe,
  0x9f, 0x7e, 0x9c, 0xbd, 0xac, 0x08, 0x02, 0xbe, 0x52, 0x2d, 0x69, 0xbe,
  0x16, 0x5e, 0xa5, 0xbd, 0xf6, 0x22, 0x19, 0xbd, 0x5a, 0x38, 0xd0, 0xbd,
  0x39, 0xbf, 0xda, 0x3c, 0xf9, 0xe1, 0xfc, 0x3d, 0x2f, 0x5b, 0xf2, 0xb9,
  0x5b, 0x46, 0xae, 0xbc, 0x27, 0x92, 0xe8, 0xbc, 0x47, 0x95, 0x50, 0x3d,
  0xec, 0x55, 0x60, 0xbe, 0xc5, 0x00, 0x31, 0xbd, 0x0a, 0xc9, 0x3c, 0xbe,
  0xf1, 0xaf, 0x97, 0xbd, 0x89, 0x9f, 0x46, 0xbe, 0x4d, 0xc0, 0x8e, 0xbd,
  0xc5, 0x69, 0x06, 0xbf, 0xfb, 0x52, 0x97, 0x3d, 0x6f, 0x79, 0x62, 0xbe,
  0xf2, 0xa1, 0x65, 0x3e, 0x9b, 0x11, 0xac, 0xbe, 0xb6, 0x66, 0x13, 0xbe,
  0xe7, 0x0b, 0x93, 0xbc, 0x1c, 0x8b, 0x5c, 0x3f, 0x51, 0x49, 0x5a, 0x3e,
  0x5c, 0x57, 0x08, 0xbe, 0x29, 0x6c, 0xec, 0xbe, 0x6a, 0xdf, 0xaf, 0x3d,
  0xb1, 0xf0, 0xdf, 0xbe, 0x6c, 0xc5, 0xba, 0xbc, 0x4a, 0x2c, 0x92, 0xbe,
  0x22, 0xd8, 0xa8, 0xbd, 0x3d, 0x63, 0x29, 0xbf, 0xad, 0x8d, 0x11, 0x3e,
  0xa4, 0xcb, 0xb7, 0xbe, 0x37, 0x89, 0x49, 0x3e, 0x5d, 0xb0, 0x8e, 0xbd,
  0x98, 0xd6, 0x96, 0xbd, 0xbe, 0x3b, 0xb2, 0x3d, 0xe0, 0x09, 0xb5, 0x3d,
  0x95, 0x81, 0x8a, 0xbd, 0x6f, 0x44, 0xc6, 0x3c, 0x30, 0x8a, 0x16, 0xbf,
  0x14, 0xc4, 0xc9, 0x3d, 0x22, 0x32, 0x98, 0xbd, 0x9d, 0xb9, 0x85, 0x3d,
  0x56, 0x7b, 0x45, 0xbc, 0xa8, 0x91, 0xa6, 0x3d, 0x93, 0x0c, 0xbc, 0xbe,
  0x7f, 0xb3, 0x8d, 0x3e, 0x52, 0xf5, 0xeb, 0x3d, 0xd3, 0x1b, 0x8f, 0x3c,
  0xbf, 0xaf, 0xcf, 0xbd, 0x51, 0xcf, 0xa8, 0xbd, 0x75, 0x81, 0x30, 0x3e,
  0x09, 0x9b, 0x21, 0xbc, 0x30, 0x3b, 0x89, 0x3e, 0xce, 0x2a, 0xc8, 0x3e,
  0xda, 0x47, 0xd5, 0xbd, 0x3a, 0xe4, 0x5d, 0x3e, 0x15, 0x65, 0x54, 0x3d,
  0x1d, 0xf9, 0x44, 0x3e, 0xf5, 0x1e, 0xb3, 0x38, 0xc2, 0x7c, 0x94, 0x3d,
  0x27, 0x77, 0xad, 0xbe, 0xa7, 0xa8, 0x83, 0x3c, 0x2b, 0x6b, 0xc8, 0x3d,
  0x55, 0x6d, 0x7e, 0xbb, 0x37, 0x43, 0x10, 0xbe, 0x22, 0xa6, 0xb7, 0xbc,
  0x7f, 0x46, 0xc6, 0x3d, 0xe5, 0x8a, 0x39, 0xbd, 0x72, 0x19, 0x48, 0x3e,
  0xc5, 0x98, 0xa2, 0x3e, 0x5e, 0x8c, 0x1e, 0xbd, 0x8a, 0x4b, 0xd3, 0xbc,
  0x7f, 0xa2, 0x01, 0x3e, 0xd9, 0x8b, 0x56, 0x3e, 0xfa, 0x6b, 0x31, 0x3e,
  0xd5, 0x2b, 0xc5, 0x3c, 0x62, 0xf1, 0x06, 0xbf, 0xd4, 0x42, 0x1f, 0x3d,
  0xd9, 0x00, 0x2d, 0xbe, 0x33, 0x55, 0x66, 0xbd, 0xb6, 0x72, 0x23, 0xbe,
  0x25, 0xf5, 0x4f, 0xbd, 0x1d, 0xce, 0x8a, 0x3d, 0x07, 0x9b, 0xd1, 0x3d,
  0xdb, 0x87, 0x01, 0x3e, 0xdf, 0x38, 0x1b, 0x3e, 0x4e, 0x81, 0xa2, 0xbe,
  0x1a, 0xc4, 0xb5, 0x3c, 0x76, 0x4b, 0x3c, 0xbd, 0x88, 0x0a, 0xad, 0xbc,
  0xf6, 0xd6, 0xf0, 0x3d, 0x14, 0xe4, 0xbc, 0xbb, 0xe0, 0xd1, 0xb6, 0xbe,
  0xd4, 0x8d, 0x56, 0xbe, 0xb2, 0x75, 0xe3, 0xbd, 0x82, 0x07, 0x30, 0xbe,
  0xfc, 0x91, 0x0c, 0xbe, 0x5d, 0x8b, 0x4b, 0xbe, 0x7f, 0xae, 0xd9, 0xbb,
  0x01, 0x75, 0x7b, 0x3e, 0x7f, 0xfe, 0x2a, 0x3e, 0x3e, 0xbb, 0x1e, 0x3d,
  0x8b, 0x19, 0xae, 0xbe, 0xb9, 0xed, 0xe1, 0xbd, 0xec, 0xa4, 0x46, 0xbc,
  0xce, 0x9b, 0x62, 0x3e, 0xb5, 0x32, 0x15, 0x3d, 0x9d, 0x7a, 0xa0, 0xbb,
  0x24, 0x0d, 0x8d, 0xbe, 0xc6, 0xe2, 0x97, 0xbc, 0x00, 0xee, 0x63, 0xbe,
  0x6e, 0x33, 0x72, 0x3e, 0x7e, 0x11, 0xf2, 0xbd, 0x2f, 0x83, 0x98, 0xbe,
  0x9b, 0x61, 0xc5, 0xbc, 0x19, 0x37, 0xf8, 0x3d, 0x86, 0x80, 0x1d, 0x3e,
  0x26, 0x1d, 0xee, 0x3c, 0xc3, 0x2b, 0x4e, 0xbd, 0xfe, 0xe4, 0xfa, 0xbc,
  0x42, 0x90, 0x71, 0xbd, 0xa1, 0xf6, 0x48, 0x3d, 0xba, 0x6a, 0x2e, 0xbe,
  0xaa, 0x48, 0x25, 0xbf, 0x7d, 0x86, 0x4f, 0xbe, 0xfe, 0x62, 0x6d, 0xbe,
  0xf9, 0x16, 0x8b, 0xbe, 0xff, 0x78, 0xb2, 0xbe, 0xd7, 0x9f, 0xa7, 0xbe,
  0x8d, 0x7f, 0x80, 0xbf, 0xe4, 0xe6, 0xa6, 0xbe, 0x5f, 0x18, 0x4b, 0xbe,
  0xcc, 0x86, 0x2f, 0x3e, 0x0f, 0xaa, 0xce, 0xbe, 0x23, 0x94, 0x2a, 0xbe,
  0x38, 0xe9, 0xa1, 0xbc, 0xda, 0x97, 0xff, 0xbd, 0xd7, 0x73, 0xc2, 0xbe,
  0x1d, 0xa4, 0x3b, 0xbe, 0xac, 0x5d, 0x1e, 0xbf, 0xae, 0xae, 0x48, 0xbe,
  0x0a, 0x2f, 0xc6, 0xbe, 0xe1, 0x07, 0x97, 0xbe, 0x9c, 0xdf, 0x21, 0xbe,
  0x8d, 0x8e, 0x19, 0xbe, 0xda, 0x7b, 0xf1, 0xbe, 0x6e, 0xa2, 0x5a, 0xbe,
  0xca, 0xaf, 0x0a, 0xbe, 0x9a, 0x97, 0x19, 0xbe, 0x62, 0xdf, 0x13, 0xbe,
  0x71, 0xd6, 0x96, 0xbe, 0xa5, 0xd3, 0xe9, 0x3c, 0xb7, 0xf2, 0x64, 0xbe,
  0x32, 0x5c, 0x90, 0xbe, 0x9e, 0x7b, 0x06, 0xbe, 0xfc, 0x15, 0x45, 0xbf,
  0x2e, 0xbe, 0x68, 0xbe, 0x32, 0x83, 0xde, 0xbe, 0x23, 0x6b, 0x69, 0xbe,
  0xf0, 0x37, 0x9c, 0xbe, 0x09, 0x25, 0xf8, 0xbd, 0x56, 0x29, 0x16, 0xbf,
  0x7d, 0x7b, 0x3a, 0xbe, 0x07, 0x14, 0x7f, 0xbe, 0xce, 0x4a, 0xb0, 0x3d,
  0x66, 0xfe, 0x67, 0xbd, 0x2e, 0x34, 0x65, 0xbe, 0x0b, 0x79, 0x7f, 0xbc,
  0x45, 0x7e, 0xa3, 0xbe, 0xdc, 0xbb, 0xa2, 0xbe, 0x17, 0x88, 0x46, 0xbd,
  0x31, 0x24, 0x3b, 0xbf, 0x9c, 0xd1, 0x1d, 0x3b, 0xdc, 0x8b, 0xa6, 0x3b,
  0x70, 0x81, 0x7e, 0xbd, 0xb4, 0x17, 0xc2, 0xbe, 0xea, 0x90, 0x99, 0xbe,
  0xbb, 0xf0, 0xd8, 0xbe, 0x78, 0xee, 0x84, 0xbe, 0x22, 0x06, 0xa7, 0xbd,
  0xf5, 0x7e, 0x72, 0xbc, 0x1d, 0xd9, 0x7a, 0xbe, 0xf1, 0xaa, 0x0e, 0xbe,
  0x66, 0x8b, 0xff, 0xbc, 0xb0, 0xcb, 0xa4, 0xbe, 0xc3, 0x5f, 0xe4, 0xbd,
  0xfb, 0xc4, 0xda, 0xbd, 0x40, 0x7a, 0x12, 0xbf, 0xf8, 0xd1, 0x16, 0x3d,
  0x01, 0x51, 0x68, 0x3e, 0x2d, 0x0a, 0x6f, 0x3c, 0xee, 0x42, 0x8b, 0xbe,
  0xea, 0xa3, 0x17, 0x3e, 0x20, 0xac, 0x32, 0x3e, 0xf8, 0xa0, 0x22, 0xbe,
  0xef, 0x19, 0xc2, 0x3d, 0xab, 0x46, 0x15, 0xbe, 0xc7, 0x08, 0x6b, 0x3e,
  0x3a, 0x1c, 0xde, 0xbe, 0x49, 0x59, 0x5a, 0xba, 0x4b, 0xbe, 0x9d, 0xbe,
  0xfb, 0x2c, 0x08, 0xbe, 0xb7, 0xda, 0x5b, 0x3e, 0xcd, 0x42, 0xd8, 0xbe,
  0xc7, 0xa7, 0x1f, 0xbd, 0xb4, 0xfe, 0xc2, 0x3d, 0xcf, 0x02, 0x8f, 0x3c,
  0x54, 0x36, 0x35, 0xbf, 0xad, 0xaa, 0xf9, 0x3d, 0x1f, 0xf4, 0x53, 0xbc,
  0x1d, 0xbe, 0x13, 0x3d, 0x7b, 0xec, 0xf7, 0xbb, 0x97, 0x3c, 0xcc, 0xbc,
  0x4b, 0xc3, 0x3c, 0x3e, 0x27, 0xbb, 0xbf, 0xbe, 0x39, 0xd8, 0xb5, 0x3c,
  0xe0, 0x5c, 0x6b, 0xbe, 0xc9, 0xce, 0xff, 0xbd, 0x77, 0x93, 0x8a, 0x3e,
  0x83, 0x81, 0x47, 0x3e, 0x49, 0x26, 0x8c, 0xbd, 0xce, 0x88, 0x6e, 0x3e,
  0xfb, 0xac, 0x8c, 0xbe, 0x35, 0xb3, 0x17, 0xbf, 0x64, 0x26, 0x5a, 0xbd,
  0x90, 0x38, 0x03, 0x3e, 0xae, 0xe7, 0x06, 0x3e, 0xb5, 0xc0, 0x27, 0x3e,
  0xdd, 0x81, 0xe1, 0xbc, 0xde, 0xf4, 0x1b, 0x3e, 0x2e, 0x20, 0x03, 0x3e,
  0x57, 0x04, 0x37, 0x3d, 0xf0, 0x08, 0x10, 0xbe, 0xeb, 0xbe, 0x89, 0x3b,
  0x4e, 0xd1, 0xeb, 0x3d, 0x63, 0x3c, 0x7b, 0xbe, 0x1f, 0x16, 0xb4, 0xbd,
  0x7e, 0x2f, 0x98, 0xbc, 0x44, 0x07, 0x22, 0xbd, 0x9d, 0x27, 0x96, 0xbc,
  0x2b, 0x8d, 0x2e, 0xbd, 0x4c, 0x48, 0x2f, 0xbd, 0x49, 0xac, 0x61, 0xbe,
  0x56, 0x53, 0x32, 0x3e, 0x39, 0xbb, 0x2c, 0x3e, 0xb4, 0xc8, 0x09, 0x3d,
  0x22, 0xfb, 0x07, 0xbd, 0x36, 0x86, 0x31, 0xbd, 0xc6, 0x76, 0x0c, 0x3d,
  0xb7, 0xc0, 0x0b, 0xbe, 0xbf, 0xb9, 0xe3, 0x3c, 0xe8, 0x7e, 0x23, 0x3d,
  0xe1, 0x3c, 0xa7, 0xbd, 0xdd, 0x2b, 0xc3, 0x3b, 0x51, 0x22, 0x01, 0xbe,
  0x30, 0x74, 0x19, 0xbe, 0x1f, 0x1e, 0x79, 0xbe, 0x88, 0x3a, 0xd6, 0x3c,
  0xaa, 0x5e, 0x92, 0xbd, 0x93, 0xa9, 0x9e, 0x3c, 0x7a, 0x11, 0xb5, 0x3d,
  0xa8, 0x93, 0x0a, 0x3d, 0xf0, 0xc5, 0x84, 0xbe, 0xa3, 0x4f, 0xd0, 0xbd,
  0xf2, 0xce, 0x66, 0xbe, 0x7c, 0xa4, 0x53, 0xbd, 0xba, 0x55, 0xf2, 0xbd,
  0xc1, 0x40, 0x98, 0xbd, 0x37, 0x7c, 0x3c, 0xbe, 0x76, 0x35, 0x27, 0xbe,
  0x13, 0xe9, 0x12, 0x3e, 0x4d, 0x3b, 0x1d, 0x3d, 0x3d, 0x9f, 0xfc, 0x3c,
  0x0c, 0xa6, 0x5d, 0xbe, 0xfd, 0x49, 0x0a, 0xbe, 0xdf, 0xc8, 0xe8, 0x3c,
  0x26, 0x0d, 0x4c, 0xbe, 0x6c, 0x54, 0x8f, 0x3d, 0xe4, 0x6c, 0x84, 0xbd,
  0x31, 0xfe, 0x99, 0xbe, 0x67, 0x24, 0xb7, 0xbd, 0x85, 0xa3, 0x0e, 0x3e,
  0xc4, 0x01, 0xb2, 0x3b, 0x8f, 0x3c, 0x84, 0x3d, 0x92, 0x1e, 0xd0, 0xbd,
  0x23, 0xa2, 0xf5, 0x3d, 0x51, 0x2e, 0x98, 0x3d, 0x63, 0x75, 0xe9, 0x3c,
  0x76, 0x6f, 0x55, 0xbd, 0x6c, 0xfe, 0x86, 0x3a, 0x8c, 0x6a, 0x88, 0xbe,
  0xe7, 0x05, 0xc0, 0x3c, 0x5c, 0x8a, 0xc3, 0x3d, 0x0b, 0x0d, 0xaa, 0x3d,
  0xe9, 0x14, 0x12, 0xbe, 0xc9, 0x49, 0x4c, 0xbd, 0x92, 0xe2, 0x7e, 0xbd,
  0xdd, 0x8c, 0x13, 0xbe, 0xa0, 0xd9, 0x06, 0x3e, 0x54, 0x41, 0x76, 0xbe,
  0x65, 0x3a, 0x92, 0xbe, 0x29, 0x7f, 0x96, 0x3d, 0xe2, 0x95, 0x4a, 0x3e,
  0xcb, 0x44, 0x6f, 0x3d, 0xc7, 0x5e, 0x63, 0xbe, 0x0d, 0x5b, 0x52, 0xbc,
  0x1f, 0x01, 0x11, 0xbd, 0x8a, 0x03, 0x13, 0xbe, 0x2b, 0xe8, 0x8a, 0xbd,
  0x9b, 0x85, 0x7d, 0xbd, 0x91, 0xc6, 0x8a, 0x3c, 0x7d, 0xee, 0xa9, 0xbe,
  0xdd, 0x70, 0x14, 0xbc, 0x18, 0x18, 0x24, 0xbe, 0x8f, 0x3d, 0xe0, 0x3d,
  0xec, 0x4d, 0x51, 0x3d, 0xa7, 0x67, 0x2c, 0xbe, 0x2c, 0xee, 0x19, 0xbe,
  0x5d, 0xb0, 0xf5, 0x3d, 0x71, 0xc7, 0x89, 0xbe, 0x89, 0x2c, 0x4b, 0xbd,
  0xe3, 0xb1, 0xd7, 0x3d, 0xe3, 0xb5, 0x84, 0xbd, 0xca, 0x55, 0xf1, 0x3d,
  0x6a, 0xe4, 0x2c, 0x3e, 0xef, 0xec, 0x1b, 0xbe, 0x65, 0x96, 0xc1, 0xbd,
  0x38, 0xbb, 0xf3, 0xbd, 0x8c, 0xff, 0xf0, 0x3d, 0xdb, 0xfb, 0x8b, 0x3d,
  0x67, 0xbd, 0x11, 0xbe, 0x13, 0x77, 0x4a, 0xbe, 0x86, 0x6b, 0x4e, 0xbe,
  0x3b, 0x37, 0x0f, 0x3e, 0x9f, 0x62, 0x87, 0xbd, 0x48, 0x1c, 0x49, 0xbe,
  0x07, 0x01, 0x66, 0xbe, 0x98, 0xae, 0x67, 0x3d, 0x09, 0x3c, 0x18, 0xbd,
  0x39, 0x8a, 0xc6, 0x3d, 0x7d, 0xdc, 0x26, 0xbe, 0xd7, 0xfd, 0x11, 0xbe,
  0x38, 0xcb, 0x39, 0xbd, 0x9d, 0xc5, 0x94, 0xbe, 0x7f, 0xba, 0x03, 0x3d,
  0x36, 0x8b, 0x74, 0xbe, 0x24, 0x89, 0x08, 0xbd, 0x42, 0x96, 0xe3, 0xbb,
  0x93, 0x9a, 0x97, 0xbe, 0x88, 0xae, 0x7f, 0x3d, 0x50, 0x6e, 0x9c, 0xbe,
  0xb8, 0x20, 0xa7, 0xbb, 0x2f, 0xed, 0x59, 0xbe, 0x96, 0xde, 0x31, 0xbe,
  0xe2, 0x98, 0x06, 0x3c, 0xc2, 0x24, 0x5f, 0x3f, 0x0b, 0x48, 0x64, 0x3e,
  0x98, 0x55, 0x2d, 0xbe, 0x27, 0x46, 0x41, 0xbf, 0x18, 0xbf, 0x0e, 0x3e,
  0x56, 0x48, 0xc0, 0xbe, 0xa3, 0x52, 0x9a, 0x3d, 0xa1, 0x40, 0x0f, 0xbe,
  0xac, 0x39, 0xed, 0x3d, 0x8a, 0x39, 0xad, 0xbe, 0xeb, 0xe2, 0x43, 0xbe,
  0xfc, 0xab, 0x5d, 0xbf, 0x50, 0x9d, 0x82, 0xbd, 0xf5, 0xe4, 0x12, 0x3d,
  0x05, 0xde, 0x05, 0xbe, 0x9e, 0x76, 0x6d, 0x3d, 0x2d, 0xc5, 0x24, 0x3e,
  0x1d, 0x53, 0x70, 0x3d, 0xed, 0x13, 0xc1, 0x3e, 0x6c, 0x45, 0xf6, 0xbe,
  0x5e, 0x0f, 0x92, 0x3d, 0x55, 0x9f, 0x94, 0xbc, 0x3b, 0x46, 0x84, 0x3e,
  0xd7, 0x8d, 0x80, 0xbe, 0xc4, 0xe2, 0x29, 0x3e, 0xb0, 0x0d, 0xac, 0xbe,
  0xa4, 0x0d, 0x98, 0xbd, 0xd9, 0xf8, 0xcc, 0xbe, 0x2f, 0x12, 0xe1, 0x3d,
  0x5d, 0xbc, 0x37, 0xbe, 0x8e, 0xa8, 0x2c, 0xbe, 0x57, 0x87, 0x80, 0x3d,
  0x01, 0x37, 0x7a, 0x3e, 0xa4, 0xff, 0xd2, 0x3e, 0xc0, 0x95, 0x1d, 0x3e,
  0x4a, 0x2c, 0x6f, 0xbe, 0x37, 0x6b, 0x37, 0x3c, 0xfd, 0x1d, 0xad, 0x3d,
  0x04, 0x27, 0x9a, 0x3e, 0xd1, 0x86, 0x51, 0x3e, 0x19, 0x14, 0xab, 0x3c,
  0x4c, 0x9f, 0x5f, 0xbe, 0x1f, 0xbf, 0x4d, 0xbe, 0x0c, 0x1d, 0x85, 0xbe,
  0xb7, 0x63, 0x85, 0x3d, 0x37, 0x19, 0xf4, 0xbd, 0x0e, 0xb7, 0x2c, 0x3d,
  0x02, 0x26, 0x94, 0x3d, 0x04, 0xdf, 0xe0, 0xbb, 0x59, 0x8d, 0x17, 0x3e,
  0x5e, 0xda, 0x3f, 0x3e, 0x6c, 0x40, 0xdb, 0xbd, 0xed, 0x6d, 0x01, 0x3d,
  0x49, 0x82, 0x4f, 0xbd, 0x44, 0x68, 0x37, 0x3e, 0x89, 0x87, 0xf2, 0xbc,
  0x8d, 0x7e, 0x96, 0x3c, 0x2c, 0xbb, 0x4c, 0xbe, 0xe1, 0x10, 0x81, 0xbd,
  0xe4, 0x47, 0x8b, 0xbe, 0x48, 0x1f, 0xb8, 0x3d, 0x8a, 0x9a, 0x1a, 0xbd,
  0xad, 0x8b, 0x54, 0xbe, 0x9c, 0xe1, 0x82, 0x3d, 0x74, 0xec, 0x6e, 0x3d,
  0x86, 0x49, 0xd5, 0xbd, 0x42, 0x54, 0xa9, 0x3e, 0xb3, 0x43, 0xd2, 0xbe,
  0x5d, 0xa9, 0xdd, 0x3d, 0x3c, 0xdd, 0xe9, 0xbc, 0xd9, 0x93, 0xe5, 0x3c,
  0xec, 0xa4, 0xe2, 0x3c, 0x8a, 0x0d, 0x11, 0xbd, 0xf5, 0x0a, 0xa8, 0xbe,
  0x91, 0xbd, 0x3d, 0xbf, 0xe8, 0xbf, 0x4b, 0xbf, 0x45, 0x3e, 0xc0, 0xbd,
  0x7f, 0x6c, 0x5f, 0xbe, 0x21, 0xf4, 0xd0, 0xbe, 0xc2, 0xf3, 0x1f, 0x3d,
  0xa8, 0x65, 0xa3, 0x3e, 0x97, 0x33, 0x9d, 0x3d, 0x36, 0x67, 0x61, 0x3d,
  0x77, 0x4d, 0xac, 0xbe, 0x5e, 0xee, 0x43, 0x3a, 0x03, 0x4f, 0x14, 0x3c,
  0xd5, 0x50, 0x82, 0xbd, 0x56, 0x5a, 0x6d, 0xbe, 0xcd, 0xa2, 0xec, 0x3d,
  0x6a, 0xd6, 0xce, 0xbe, 0x0d, 0x06, 0x6b, 0xbe, 0xc9, 0x4f, 0xc0, 0xbe,
  0x80, 0xcc, 0x58, 0x3b, 0xc3, 0x3c, 0x50, 0x39, 0xe8, 0xaa, 0x7e, 0xbe,
  0x11, 0x22, 0x9e, 0x3c, 0xc8, 0x10, 0x4b, 0x3e, 0x2d, 0x21, 0xb6, 0xb8,
  0xe1, 0xf6, 0x5e, 0x3d, 0x1c, 0x06, 0x85, 0x3c, 0xe9, 0xb0, 0xd2, 0x3c,
  0x89, 0x38, 0xc3, 0xbd, 0xfa, 0xb5, 0xc1, 0x3d, 0xd9, 0x37, 0x8d, 0xbd,
  0x36, 0x2f, 0x8e, 0xbe, 0x73, 0x44, 0xa3, 0xbd, 0xc7, 0xd6, 0x93, 0x3d,
  0xd0, 0x61, 0x3f, 0xbd, 0xff, 0x1a, 0x96, 0xbd, 0x1f, 0xa1, 0x90, 0xbe,
  0x31, 0xa3, 0x54, 0xbe, 0x62, 0xae, 0xbf, 0xbe, 0x7d, 0x84, 0x2c, 0xbe,
  0xa6, 0x2c, 0x39, 0x3d, 0xf7, 0x93, 0xd1, 0x3d, 0x9e, 0x8a, 0xb0, 0x3d,
  0x14, 0x4d, 0xd4, 0xbd, 0xf7, 0xb8, 0x4e, 0xbe, 0xc6, 0xab, 0x55, 0xbe,
  0xf6, 0x2f, 0x62, 0x3d, 0x87, 0x74, 0xa8, 0x3d, 0x98, 0x69, 0x45, 0xbe,
  0x71, 0x52, 0x4b, 0x3d, 0x51, 0x3b, 0xc9, 0x3d, 0x80, 0xb8, 0x79, 0xbe,
  0x61, 0x4a, 0x4b, 0xbe, 0xe6, 0x6a, 0x09, 0xbe, 0x18, 0xa4, 0x9e, 0xbe,
  0xb5, 0x14, 0xed, 0x3d, 0x18, 0xc9, 0xec, 0x3d, 0xe9, 0x00, 0x56, 0xbe,
  0x28, 0xa9, 0xc0, 0xbd, 0x90, 0xc1, 0x9f, 0xbc, 0x0e, 0x58, 0x46, 0xbe,
  0xbe, 0x59, 0x9d, 0xbd, 0x9a, 0x68, 0x08, 0xbe, 0x0e, 0xb2, 0x22, 0xbe,
  0x75, 0x8d, 0x66, 0xbd, 0xd4, 0x07, 0x39, 0x3e, 0x9d, 0xf5, 0x44, 0xbd,
  0x60, 0xe8, 0xf8, 0xbd, 0x31, 0x5e, 0x28, 0xbe, 0xe8, 0xfd, 0x0c, 0x3e,
  0x84, 0x7d, 0xa9, 0xbe, 0x54, 0x0e, 0x11, 0x3e, 0x0e, 0x5c, 0x01, 0x3e,
  0xfa, 0x18, 0x1e, 0xbe, 0x99, 0x51, 0x66, 0xbe, 0xd9, 0xa2, 0x17, 0xbe,
  0xe9, 0xdd, 0x38, 0x3d, 0xc6, 0xb6, 0x5b, 0x3d, 0x5f, 0x04, 0x10, 0xbe,
  0xde, 0x2e, 0x5e, 0xbd, 0x14, 0x86, 0xf4, 0xbd, 0x68, 0xf6, 0xca, 0xbc,
  0x0f, 0x64, 0x35, 0xbe, 0x84, 0x81, 0x05, 0x3e, 0xe5, 0x10, 0xe4, 0xbb,
  0x60, 0xc0, 0x95, 0xbe, 0x0a, 0x67, 0x71, 0xbe, 0x11, 0xd1, 0x59, 0xbe,
  0x26, 0x3b, 0x78, 0xbd, 0x37, 0x3e, 0x28, 0x3c, 0x43, 0xd8, 0xfd, 0xbd,
  0x47, 0x97, 0x43, 0x3d, 0xab, 0xd1, 0x2a, 0xbe, 0x5e, 0xad, 0x13, 0xbd,
  0xa2, 0x77, 0x38, 0xbd, 0x35, 0xc5, 0xab, 0x3d, 0xf6, 0xe3, 0xc0, 0x3c,
  0x51, 0x4c, 0x8a, 0x3e, 0x98, 0x2f, 0x71, 0xbd, 0x87, 0x2b, 0x70, 0xbe,
  0x25, 0x10, 0x63, 0xbe, 0xf4, 0x0a, 0xc7, 0x3d, 0xc6, 0x6a, 0x80, 0xbc,
  0xaf, 0x2d, 0x00, 0xbe, 0xb1, 0x49, 0x72, 0x3d, 0xf4, 0x29, 0x6f, 0xbe,
  0x91, 0x96, 0xe6, 0x3c, 0xa7, 0x12, 0x80, 0xbd, 0xa7, 0x90, 0x48, 0xbe,
  0x67, 0xc5, 0xaa, 0xbd, 0x17, 0x21, 0x0a, 0xbe, 0x6d, 0x31, 0x18, 0xbd,
  0x4e, 0xf0, 0xc6, 0xbd, 0xc0, 0x61, 0x75, 0xbd, 0x59, 0xce, 0xe0, 0xbd,
  0x89, 0xfd, 0x18, 0xbd, 0x38, 0x8f, 0xde, 0x3d, 0x16, 0x14, 0x75, 0x3d,
  0x19, 0x27, 0x13, 0xbe, 0xb4, 0x70, 0xbd, 0xbc, 0x4c, 0x45, 0xbe, 0x3d,
  0x3f, 0xd7, 0x06, 0xbe, 0xa4, 0x6d, 0xba, 0xbd, 0xe0, 0x69, 0x1c, 0x3d,
  0xcd, 0x8d, 0x84, 0xbe, 0x75, 0x23, 0x54, 0xbe, 0x83, 0xf0, 0x99, 0x3e,
  0x9e, 0x21, 0x88, 0xbd, 0x53, 0x53, 0xf0, 0xbd, 0x8b, 0x15, 0xd0, 0xbc,
  0x88, 0x3f, 0x08, 0xbe, 0xe9, 0xca, 0x98, 0xbe, 0xda, 0x80, 0xc7, 0xbd,
  0x3c, 0x5d, 0x09, 0x3e, 0xdc, 0xfb, 0x85, 0x3c, 0xfc, 0x83, 0xab, 0x3d,
  0x2a, 0x02, 0xe3, 0x3d, 0x22, 0xa0, 0xb6, 0x3b, 0xc1, 0xde, 0x0a, 0xbe,
  0xdb, 0x27, 0x07, 0x3d, 0x6b, 0x31, 0x9b, 0x3d, 0xe6, 0xe7, 0x30, 0xbe,
  0x81, 0x82, 0x90, 0xbd, 0xb5, 0x43, 0x3d, 0x3e, 0xa0, 0x14, 0x9b, 0xbc,
  0x17, 0xbb, 0xaa, 0xbd, 0x0c, 0x6a, 0xad, 0x3e, 0xc8, 0xab, 0xb5, 0xbe,
  0x43, 0xa5, 0x72, 0xbe, 0xf1, 0x2c, 0x1a, 0xbe, 0x0d, 0xf5, 0xdc, 0x3c,
  0xf3, 0xcf, 0x18, 0xbe, 0x29, 0xca, 0x4f, 0x3e, 0x9b, 0xa9, 0xc4, 0x3a,
  0xb4, 0xe0, 0x18, 0x3e, 0x1f, 0x5c, 0x44, 0x3d, 0xb7, 0x6e, 0x38, 0xbe,
  0x0c, 0x6e, 0x9f, 0x3d, 0x37, 0x94, 0x33, 0xbd, 0x4c, 0x00, 0x66, 0x3e,
  0xe2, 0x37, 0x19, 0x3c, 0x6c, 0x0d, 0x45, 0xbe, 0xec, 0x4c, 0x89, 0x3e,
  0x1f, 0xd1, 0x22, 0xbe, 0xd3, 0x6a, 0xa7, 0xbd, 0x78, 0x40, 0x85, 0xbd,
  0x04, 0xce, 0xd8, 0xbd, 0x2e, 0xfb, 0xdc, 0xbd, 0xac, 0xb9, 0xcd, 0xbd,
  0x41, 0xb6, 0x11, 0xbd, 0xd6, 0x88, 0x9d, 0xbc, 0x44, 0x69, 0xb1, 0xbd,
  0x85, 0x61, 0x97, 0x3d, 0x1f, 0x44, 0x21, 0xbe, 0xcd, 0x59, 0x81, 0xbd,
  0xf7, 0x10, 0xc5, 0xbe, 0x14, 0x29, 0xf2, 0x3d, 0x74, 0x5b, 0xa0, 0x3e,
  0xf1, 0xc7, 0x8b, 0x3d, 0xc7, 0xdc, 0x30, 0x3e, 0x54, 0x1f, 0x0a, 0x3e,
  0x97, 0xbc, 0xca, 0xbc, 0x4c, 0x92, 0x6a, 0xbe, 0xef, 0x50, 0xd6, 0xbd,
  0x0e, 0x62, 0x93, 0xbd, 0x31, 0xf5, 0x9b, 0xbc, 0xdd, 0x1e, 0xce, 0xbd,
  0x70, 0x15, 0x08, 0xbd, 0x45, 0x81, 0xa1, 0x3d, 0x68, 0xbb, 0x6c, 0x3d,
  0xc8, 0xea, 0x21, 0x3e, 0x19, 0xbd, 0xbd, 0xbd, 0x8d, 0x8d, 0xe8, 0xbd,
  0x82, 0x31, 0x78, 0x3e, 0x70, 0x6f, 0x34, 0xbd, 0xed, 0x10, 0x55, 0x3e,
  0x6a, 0xca, 0x04, 0x3e, 0xb6, 0x89, 0xb0, 0x3d, 0xcf, 0x75, 0x86, 0xbd,
  0xd5, 0xe4, 0x1f, 0x3e, 0x21, 0xdd, 0x05, 0x3e, 0x9d, 0x98, 0x3d, 0x3e,
  0x1c, 0x37, 0x7d, 0xbe, 0x90, 0xd5, 0x23, 0xbe, 0xd0, 0x78, 0x3a, 0xbe,
  0xd6, 0x6c, 0x10, 0x3e, 0xbd, 0x4f, 0xe1, 0x3d, 0x08, 0x77, 0x35, 0xbd,
  0xb3, 0x13, 0x3f, 0xbe, 0x81, 0x65, 0xd8, 0x3b, 0x85, 0x80, 0x9b, 0x3e,
  0x3c, 0x95, 0x4f, 0xbd, 0x31, 0x05, 0x80, 0x3e, 0x8c, 0x2e, 0x86, 0xbd,
  0x93, 0xda, 0x87, 0xbd, 0x52, 0xc7, 0x0d, 0x3e, 0x30, 0x92, 0xcc, 0xbc,
  0x51, 0xa2, 0xef, 0xbd, 0x92, 0xfd, 0x77, 0x3d, 0x62, 0xcf, 0x8c, 0xbd,
  0x2f, 0x68, 0x4f, 0xbe, 0xf9, 0x9c, 0x2b, 0xbe, 0xea, 0x63, 0x1f, 0xbd,
  0x11, 0x48, 0x55, 0xbe, 0xf5, 0x25, 0x42, 0xbe, 0x20, 0x52, 0xe4, 0xbd,
  0x1d, 0xea, 0x60, 0x3e, 0x35, 0xef, 0x9c, 0xbe, 0x96, 0xb5, 0x3e, 0xbe,
  0xdd, 0xbf, 0x15, 0xbc, 0x83, 0x22, 0xc2, 0xbc, 0x7c, 0x42, 0x51, 0x3e,
  0xe4, 0xc5, 0x95, 0x3d, 0x54, 0x20, 0xfb, 0x3c, 0xf7, 0x4b, 0x4d, 0xbe,
  0xb6, 0x5f, 0xcb, 0xbd, 0x15, 0xa5, 0x17, 0xbe, 0x61, 0x26, 0x1c, 0xbe,
  0x0c, 0x6c, 0xcc, 0x3d, 0x01, 0x80, 0x0d, 0x3d, 0xb6, 0x60, 0x72, 0xbe,
  0x33, 0xfe, 0x7d, 0x3d, 0x9b, 0xc4, 0x5c, 0xbe, 0xf7, 0x74, 0xb6, 0x3d,
  0xe0, 0x72, 0xfe, 0xbd, 0x9e, 0x66, 0xa8, 0x3c, 0x45, 0x16, 0x21, 0xbe,
  0xef, 0x50, 0x8f, 0xbd, 0x5b, 0xee, 0x9a, 0x3d, 0xbe, 0x73, 0x3b, 0xbe,
  0x2b, 0xe9, 0x04, 0xbd, 0xda, 0x16, 0x62, 0xbe, 0xc7, 0x0b, 0x23, 0xbd,
  0x7b, 0x37, 0x07, 0xbe, 0xb6, 0x4b, 0xec, 0x3c, 0xc0, 0x2e, 0x39, 0x3c,
  0xdf, 0xb6, 0x43, 0xbd, 0x5d, 0xbc, 0xcf, 0xbc, 0xd4, 0x66, 0x8f, 0xbd,
  0xa6, 0x47, 0x0e, 0xbe, 0xe5, 0xef, 0xe2, 0xbd, 0x13, 0xfc, 0x6c, 0xbe,
  0x61, 0x89, 0x9b, 0xbe, 0xab, 0x05, 0x5e, 0xbe, 0x06, 0x4f, 0xd8, 0x3d,
  0x51, 0xb5, 0xd7, 0xbd, 0xe9, 0x7c, 0x8a, 0xbd, 0xc7, 0x0a, 0x61, 0xbe,
  0x31, 0x10, 0xa7, 0x3d, 0x9a, 0x63, 0xcb, 0x3d, 0xbd, 0x95, 0xaf, 0xbd,
  0xe2, 0x6e, 0x1c, 0xbe, 0x4f, 0x15, 0x3f, 0xbd, 0x33, 0x2d, 0x6f, 0xbc,
  0x6d, 0x61, 0x53, 0xbc, 0xa7, 0xd4, 0x70, 0xbe, 0x51, 0xbd, 0x87, 0x3c,
  0xb4, 0x4f, 0x3e, 0xbe, 0x95, 0x3b, 0x97, 0xbe, 0x8b, 0x86, 0x0d, 0x3e,
  0xc2, 0x16, 0xa1, 0x3d, 0x1f, 0x21, 0x7a, 0x3d, 0x67, 0x75, 0x2c, 0xbe,
  0x14, 0x84, 0x04, 0xbd, 0x71, 0x90, 0x37, 0xbe, 0x8e, 0xfd, 0x4e, 0xbb,
  0xd3, 0xad, 0x15, 0xbe, 0xa2, 0x5f, 0xf5, 0xbd, 0x18, 0x45, 0x23, 0xbd,
  0x3c, 0xa2, 0xa8, 0x3d, 0xb4, 0x34, 0x05, 0x3d, 0x18, 0xa8, 0xc7, 0x3d,
  0x2e, 0xb7, 0x99, 0x3c, 0xb5, 0x70, 0x5b, 0xbe, 0x0d, 0x4f, 0x6d, 0xbe,
  0x98, 0x25, 0xf1, 0xbd, 0xaf, 0xaa, 0x4a, 0xbe, 0xd5, 0x7d, 0x63, 0xbd,
  0xf7, 0xd1, 0x02, 0x3c, 0x19, 0x5e, 0x05, 0xbe, 0x49, 0xa4, 0x0f, 0xbe,
  0xd9, 0x62, 0x11, 0x3e, 0xa2, 0x32, 0x80, 0x3d, 0x0d, 0xd9, 0x4f, 0xbe,
  0x8a, 0x02, 0x6f, 0x3c, 0x50, 0xfb, 0x35, 0x3d, 0x19, 0xa6, 0xb6, 0x3d,
  0x80, 0x85, 0x3d, 0x3e, 0x32, 0x3d, 0xed, 0x3c, 0x65, 0x05, 0x32, 0xbd,
  0xd9, 0x0d, 0xa9, 0xbe, 0x83, 0x06, 0xc8, 0x3d, 0x9d, 0x7e, 0x9f, 0x3d,
  0xdd, 0x9e, 0xec, 0x3d, 0xa6, 0x7d, 0x41, 0xbe, 0x5d, 0x42, 0x63, 0xbe,
  0x2f, 0xf4, 0xfb, 0x3d, 0x8e, 0xa6, 0x47, 0xbe, 0xba, 0xef, 0xb1, 0x3c,
  0x07, 0x02, 0x72, 0xbd, 0x83, 0x9d, 0x81, 0xbe, 0xe0, 0x84, 0xd3, 0x3c,
  0x6d, 0x02, 0x2c, 0x3e, 0x7d, 0x2a, 0x0c, 0x3e, 0x0b, 0x45, 0x00, 0x3e,
  0x41, 0x03, 0x88, 0xbe, 0x4b, 0x81, 0xb4, 0xbe, 0xdb, 0xf0, 0x08, 0x3e,
  0xed, 0xfd, 0x1f, 0xbe, 0xa1, 0xb1, 0xce, 0x3d, 0xa9, 0xf3, 0x38, 0x3d,
  0x80, 0x6e, 0x50, 0xbd, 0x82, 0x2a, 0x03, 0xbe, 0x72, 0xef, 0x2e, 0xbd,
  0x60, 0x57, 0x41, 0x3d, 0xb1, 0xa1, 0x29, 0xbe, 0x7a, 0x14, 0x57, 0x3d,
  0xc0, 0x8c, 0x25, 0xbe, 0xf3, 0xe6, 0xa0, 0xbd, 0x0d, 0xbe, 0x29, 0xbe,
  0x97, 0x07, 0x0a, 0x3d, 0x98, 0xf8, 0x92, 0xbd, 0x58, 0xfb, 0x20, 0xbe,
  0xcb, 0x9b, 0x3e, 0xbe, 0xc9, 0x3a, 0xd8, 0x3d, 0x8a, 0xfc, 0x07, 0xbe,
  0xf6, 0xd5, 0xdc, 0x3d, 0x86, 0x50, 0x0e, 0xbd, 0xb0, 0x7e, 0x05, 0x3e,
  0x89, 0xe3, 0xf2, 0xbd, 0xda, 0x5f, 0x01, 0xbe, 0xad, 0x6d, 0x8d, 0xbe,
  0x92, 0xa6, 0x57, 0x3c, 0xe1, 0x7a, 0x10, 0x3e, 0xfa, 0xa9, 0x1c, 0xbe,
  0x4b, 0xf6, 0x33, 0xbe, 0xe5, 0x37, 0x86, 0xbe, 0xd7, 0x9b, 0x64, 0xbe,
  0xbc, 0xd6, 0x52, 0xbd, 0x51, 0x1c, 0xf9, 0x3d, 0x55, 0x39, 0x45, 0xbe,
  0x89, 0xf9, 0x95, 0xbd, 0x6b, 0xf6, 0x8d, 0xbe, 0xf5, 0x66, 0x76, 0xbd,
  0x15, 0x87, 0xd2, 0x3d, 0x92, 0x30, 0x47, 0x3d, 0xec, 0xfa, 0x58, 0xbe,
  0x35, 0x16, 0xc1, 0x3d, 0xdc, 0x0d, 0x3c, 0x3d, 0xcc, 0xd6, 0x6b, 0xbd,
  0x4d, 0xb2, 0x89, 0x3c, 0x23, 0x26, 0x5b, 0xbe, 0xc8, 0xcf, 0xb7, 0xbd,
  0x6e, 0x59, 0x2e, 0xbe, 0xc0, 0xc1, 0x18, 0xbe, 0x69, 0xa5, 0x52, 0x3e,
  0xaa, 0xf5, 0xb7, 0xbd, 0x84, 0x56, 0x03, 0xbe, 0x03, 0xfe, 0xcc, 0x3d,
  0x60, 0x88, 0x9a, 0xbd, 0xc8, 0x4f, 0x5c, 0xbe, 0x1c, 0x49, 0x66, 0x3e,
  0xe5, 0x70, 0x25, 0xbd, 0xa9, 0x43, 0x6c, 0xbe, 0x82, 0x95, 0x96, 0xbd,
  0xcc, 0xee, 0xb1, 0xbd, 0x0d, 0x2c, 0x81, 0xbd, 0x7a, 0x34, 0xa0, 0xbc,
  0xb3, 0x35, 0x4e, 0xbe, 0x57, 0x19, 0x4e, 0x3e, 0xe4, 0x10, 0x0e, 0xbe,
  0x00, 0x74, 0x04, 0x3d, 0x7c, 0xda, 0xf0, 0x3d, 0x4d, 0x78, 0xf8, 0x3d,
  0x17, 0x57, 0xec, 0xbd, 0xe3, 0xfe, 0x06, 0xbe, 0xcd, 0x85, 0x60, 0xbd,
  0x50, 0x8b, 0xb4, 0xbd, 0x25, 0xbb, 0x84, 0xbd, 0xf3, 0x1d, 0xdc, 0x3b,
  0x69, 0x84, 0xb9, 0xbc, 0xe7, 0x57, 0x5a, 0x3e, 0xc9, 0xc0, 0xa1, 0x3d,
  0xfb, 0xcf, 0x06, 0xbe, 0x7a, 0x11, 0x14, 0x3d, 0x8b, 0xbe, 0xb2, 0x3c,
  0x60, 0x99, 0xed, 0xbd, 0xe9, 0xa3, 0x85, 0x3e, 0x72, 0xa7, 0x3c, 0xbd,
  0x26, 0x96, 0x8b, 0x3d, 0x23, 0x8a, 0x27, 0xbe, 0xe3, 0x36, 0x40, 0xbd,
  0xa0, 0xd6, 0x60, 0x3d, 0x6d, 0x4d, 0xb8, 0xbc, 0x23, 0x22, 0x68, 0xbd,
  0x26, 0x53, 0x5f, 0xbe, 0xa7, 0x6e, 0x82, 0xbe, 0x87, 0x50, 0xf3, 0xbd,
  0x8e, 0xaf, 0xce, 0xbc, 0x6a, 0x13, 0x16, 0xbe, 0xf2, 0xb8, 0x2b, 0xbe,
  0xd9, 0x1f, 0xe6, 0x3d, 0x05, 0x16, 0xab, 0x3d, 0x1e, 0x10, 0x6d, 0xbd,
  0x31, 0xc9, 0x2f, 0x3d, 0xec, 0x87, 0x1c, 0xbe, 0x67, 0x2f, 0x28, 0x3d,
  0xc7, 0xae, 0xec, 0xbd, 0x9c, 0x11, 0xfc, 0x3c, 0xb9, 0x19, 0xb7, 0x3d,
  0x16, 0xf3, 0xb7, 0xbc, 0x07, 0x09, 0x5f, 0x3d, 0xf0, 0x2f, 0x01, 0xbd,
  0xdb, 0xdf, 0x15, 0xbe, 0x15, 0xf8, 0x13, 0x3e, 0xa0, 0x9a, 0x83, 0x3d,
  0xcc, 0x56, 0xdd, 0x3d, 0x47, 0x95, 0xf6, 0x3c, 0x6b, 0x4d, 0x08, 0xbe,
  0xfd, 0x8d, 0x7d, 0x3e, 0xc6, 0x8b, 0xbf, 0x3d, 0x38, 0xa7, 0xdc, 0x3d,
  0x8a, 0x66, 0xa0, 0xbc, 0xa0, 0x4b, 0x5a, 0xbe, 0xe4, 0x14, 0xc9, 0xbc,
  0xd8, 0x6d, 0xc7, 0x3d, 0xbd, 0x85, 0x50, 0xbc, 0xdb, 0x7f, 0x91, 0xbe,
  0xbf, 0xd6, 0x81, 0xbc, 0xd4, 0x18, 0x57, 0xbd, 0xa8, 0x37, 0x21, 0x3c,
  0x5c, 0x7c, 0x00, 0xbd, 0x53, 0xe6, 0x20, 0xbd, 0xf9, 0x86, 0xe8, 0x3d,
  0x20, 0x8c, 0x79, 0xbe, 0x30, 0xc2, 0x85, 0x3e, 0xcb, 0x02, 0x3f, 0x3e,
  0x74, 0xaa, 0xce, 0x3b, 0x5a, 0x8a, 0x4a, 0x3d, 0xf8, 0xba, 0xd5, 0xbd,
  0xd8, 0xc9, 0xed, 0xbd, 0x45, 0xb3, 0x04, 0xbe, 0xd6, 0x07, 0xf0, 0xbd,
  0x9c, 0xfb, 0xa0, 0xbd, 0xf2, 0xd5, 0xa6, 0xbc, 0x80, 0xbd, 0x3b, 0x3d,
  0xc4, 0x89, 0xa9, 0xbd, 0xbf, 0x96, 0x6a, 0xbe, 0x39, 0xaa, 0xb1, 0xbd,
  0x6e, 0x4a, 0x84, 0xbd, 0xd0, 0x7d, 0x1d, 0xbe, 0x33, 0x66, 0xb6, 0x3d,
  0x77, 0x47, 0x5a, 0xbd, 0xe6, 0x61, 0xbe, 0xbd, 0x85, 0x4b, 0x68, 0xbe,
  0xb4, 0x58, 0x94, 0xbd, 0xb0, 0x71, 0x42, 0xbe, 0x80, 0xa3, 0x18, 0xbe,
  0x8b, 0x99, 0xe8, 0xbb, 0xab, 0x48, 0x99, 0xbc, 0x91, 0xa9, 0x55, 0x3b,
  0xf2, 0xd9, 0x4f, 0x3b, 0xdb, 0x34, 0x19, 0xbd, 0x7c, 0x1f, 0x1e, 0xbe,
  0x91, 0xf6, 0x6c, 0xbe, 0xc8, 0x9e, 0x82, 0xbe, 0xfb, 0x7d, 0x18, 0xbe,
  0xcd, 0x9e, 0xad, 0xbd, 0x70, 0x74, 0x8e, 0x3d, 0xdd, 0x35, 0x9a, 0xbe,
  0x06, 0x3b, 0xac, 0xbd, 0x0a, 0xe8, 0xb3, 0x3d, 0x6c, 0xf7, 0x86, 0xbd,
  0x70, 0xac, 0x16, 0x3e, 0xb9, 0x82, 0x82, 0xbd, 0x53, 0x4e, 0x79, 0x3e,
  0x33, 0xa0, 0x2b, 0xbe, 0xeb, 0xde, 0x7a, 0x3e, 0xcd, 0x83, 0xdb, 0xbd,
  0x4c, 0x1b, 0x1e, 0xbe, 0xaf, 0x16, 0x8d, 0xbb, 0x08, 0x1d, 0xe4, 0x3d,
  0x23, 0x93, 0x42, 0xbd, 0x97, 0xea, 0xf8, 0xbd, 0x20, 0x8a, 0x85, 0x3d,
  0xc0, 0x76, 0x70, 0xbd, 0x69, 0xa2, 0x40, 0x3d, 0x63, 0x0b, 0x81, 0xbd,
  0xd7, 0x47, 0xf4, 0xbd, 0xa7, 0x19, 0x6d, 0x3e, 0x64, 0x0c, 0x01, 0x3d,
  0x59, 0xbd, 0x88, 0xba, 0xf1, 0x7d, 0xb9, 0x3c, 0x79, 0xb8, 0x31, 0x3e,
  0xa0, 0x64, 0x1d, 0xbe, 0x6d, 0xba, 0xff, 0xbd, 0x54, 0x8a, 0x10, 0x3d,
  0x8a, 0x79, 0x69, 0x3c, 0x1b, 0x39, 0x60, 0xbe, 0x69, 0xa1, 0xd2, 0xbd,
  0x5c, 0x1a, 0x16, 0x3e, 0x15, 0x64, 0x2f, 0x3e, 0xef, 0x70, 0x5c, 0x3d,
  0x59, 0xfa, 0x2e, 0xbe, 0x7b, 0x35, 0x31, 0x3e, 0x57, 0x86, 0x05, 0x3e,
  0x10, 0x42, 0x40, 0xbd, 0xd9, 0x1a, 0x2d, 0x3e, 0x40, 0x85, 0x96, 0xbe,
  0xd7, 0x8b, 0x72, 0xbe, 0xa6, 0x07, 0x38, 0xbe, 0xcb, 0x33, 0xc8, 0x3c,
  0xab, 0x7b, 0xa3, 0x3d, 0x29, 0xee, 0x64, 0x3b, 0x23, 0x0e, 0xd0, 0xbd,
  0xab, 0x23, 0x65, 0x3d, 0xc6, 0x93, 0x26, 0xbe, 0x27, 0x24, 0x72, 0xbd,
  0x5e, 0x7c, 0x65, 0xbd, 0xfd, 0xa9, 0x90, 0x3a, 0xae, 0x5a, 0xc9, 0xbc,
  0x0d, 0xf0, 0x98, 0xbd, 0x2c, 0xb4, 0xd9, 0xbd, 0xca, 0x0e, 0x1b, 0xbe,
  0x6e, 0xfd, 0x9c, 0xbc, 0x73, 0xc5, 0xa6, 0xbd, 0x2b, 0xe9, 0x08, 0xbe,
  0x1a, 0x7f, 0xa6, 0x3c, 0x7c, 0x7c, 0x33, 0x3e, 0x9a, 0x5e, 0xeb, 0xbd,
  0x36, 0x1b, 0xbc, 0xbe, 0x43, 0x96, 0x15, 0x3e, 0xc3, 0x46, 0x79, 0x3e,
  0xe2, 0x58, 0x3a, 0x3c, 0x40, 0x48, 0x9b, 0x3c, 0x5c, 0xc1, 0x45, 0xbe,
  0x3f, 0x43, 0x92, 0x3c, 0x9a, 0x34, 0xcb, 0x3e, 0xd5, 0x49, 0x46, 0xbe,
  0x27, 0x55, 0x98, 0x3d, 0x1e, 0x2e, 0xf5, 0xbc, 0x02, 0x66, 0x86, 0xbd,
  0x68, 0xa2, 0xbe, 0xbc, 0x00, 0xae, 0x20, 0xbe, 0xc5, 0xb2, 0xda, 0x3d,
  0x16, 0x4c, 0xfc, 0xbd, 0x1d, 0x42, 0x8b, 0xbc, 0x33, 0xbe, 0x4e, 0x3b,
  0xbc, 0xb3, 0x56, 0x3e, 0x33, 0x2a, 0xe1, 0xbd, 0xfa, 0x33, 0xb0, 0x3c,
  0x49, 0xad, 0x56, 0xbe, 0x40, 0x41, 0xd1, 0xbd, 0x43, 0xc4, 0x07, 0x3e,
  0x80, 0x9c, 0xec, 0x3d, 0x17, 0xa6, 0xce, 0xbd, 0xc8, 0xf6, 0x98, 0xbd,
  0x87, 0x8d, 0xd2, 0x3d, 0x02, 0xa8, 0x26, 0x3e, 0xa4, 0x33, 0x3c, 0xbd,
  0x3f, 0x67, 0x31, 0xbe, 0x51, 0xdc, 0x17, 0x3d, 0x07, 0x7c, 0xdc, 0xbd,
  0xa9, 0x6f, 0x9f, 0x3c, 0x99, 0xe2, 0x19, 0xbe, 0x46, 0x32, 0x04, 0xbe,
  0x01, 0xa8, 0x9f, 0xbd, 0x04, 0xe4, 0xb9, 0x3c, 0x14, 0xe6, 0x80, 0x3d,
  0x78, 0xa1, 0x44, 0x3d, 0xa6, 0x57, 0xa5, 0x3b, 0x55, 0x1f, 0xbd, 0xbe,
  0x9a, 0x90, 0x95, 0xbe, 0xe1, 0xd1, 0x93, 0x3b, 0x73, 0xf5, 0x0d, 0xbe,
  0xbd, 0x95, 0x97, 0xbb, 0x1b, 0xc8, 0x05, 0xbe, 0x5e, 0x35, 0x62, 0xbe,
  0xc0, 0xa5, 0x32, 0x3d, 0x1c, 0xa1, 0x78, 0x3f, 0xe5, 0x5d, 0x1d, 0x3e,
  0x08, 0x29, 0x1f, 0xbe, 0x3f, 0x52, 0xdb, 0xbe, 0x92, 0x82, 0x4a, 0x3e,
  0xca, 0xc6, 0xae, 0xbe, 0xf6, 0xf6, 0x80, 0xbb, 0x2a, 0xdb, 0x93, 0x3d,
  0x24, 0x49, 0x0d, 0xbe, 0xa6, 0x9e, 0xde, 0xbe, 0x14, 0x7a, 0xc0, 0xbc,
  0x4e, 0xe2, 0x80, 0xbe, 0xa1, 0x62, 0xe7, 0x3d, 0x96, 0x9a, 0x99, 0xbd,
  0x53, 0xff, 0x02, 0xbe, 0x19, 0x6c, 0xa7, 0xbc, 0xe8, 0x37, 0xe3, 0x3e,
  0x80, 0x6c, 0x0c, 0x3e, 0xf8, 0x5d, 0x7c, 0x3e, 0x30, 0xcb, 0x61, 0xbe,
  0x7e, 0x99, 0xd0, 0x3d, 0x57, 0x80, 0xba, 0xbd, 0xd1, 0x42, 0x74, 0x3e,
  0xff, 0x0c, 0xa3, 0xbd, 0x94, 0x58, 0xd0, 0xbd, 0xa8, 0x48, 0x58, 0xbe,
  0x37, 0x20, 0xa4, 0xbd, 0xe6, 0x60, 0x3d, 0xbd, 0x62, 0xb6, 0xdb, 0x3d,
  0xf7, 0xa4, 0x9f, 0xbd, 0xcc, 0x14, 0xd1, 0xbc, 0x79, 0xdb, 0xb8, 0x3c,
  0xa7, 0xf7, 0x7f, 0x3b, 0xf3, 0x59, 0x5e, 0x3d, 0x4c, 0x60, 0x8e, 0x3e,
  0xc0, 0x6d, 0xc3, 0xbc, 0xa4, 0x88, 0xdd, 0x3d, 0xfc, 0xec, 0xc4, 0xbd,
  0x95, 0xde, 0x81, 0x3e, 0xb0, 0x7d, 0xaf, 0x3d, 0x8f, 0xa1, 0x42, 0xbe,
  0x8e, 0x56, 0x5b, 0xbe, 0xe7, 0xfe, 0x24, 0xbd, 0x2f, 0xa1, 0x36, 0xbe,
  0x2a, 0x99, 0x18, 0x3d, 0x54, 0x87, 0x06, 0xbe, 0x56, 0xea, 0xba, 0xbc,
  0xb0, 0x50, 0xf5, 0x3c, 0x66, 0x97, 0x90, 0x3e, 0x96, 0xe5, 0x81, 0x3e,
  0xee, 0xd1, 0xdf, 0x3d, 0x95, 0x47, 0xb7, 0x3d, 0x01, 0x43, 0xbb, 0x3d,
  0x44, 0xa0, 0x5f, 0x3d, 0x6c, 0x06, 0x24, 0x3e, 0x53, 0x12, 0x0c, 0x3e,
  0x54, 0x10, 0x37, 0xbe, 0x45, 0xef, 0x92, 0xbe, 0x9a, 0xee, 0x49, 0xbe,
  0x3b, 0xcd, 0xac, 0x3d, 0x16, 0x00, 0x81, 0x3d, 0x5d, 0x72, 0xaf, 0xbd,
  0x4a, 0x14, 0x07, 0xbe, 0x4a, 0x20, 0x3f, 0x3d, 0x7f, 0xdc, 0xf6, 0x3c,
  0x03, 0xd8, 0x74, 0x3e, 0x23, 0xe2, 0x83, 0x3e, 0x86, 0x80, 0x08, 0xbc,
  0xec, 0xfa, 0xd3, 0x3d, 0xbd, 0x52, 0xcb, 0xbd, 0x02, 0x36, 0x93, 0x3e,
  0xbc, 0xef, 0xe4, 0x3d, 0x3d, 0xe2, 0x5f, 0xbe, 0xb4, 0x57, 0xd5, 0xbd,
  0x7f, 0x4b, 0xdc, 0xbe, 0x55, 0x4f, 0xff, 0xbc, 0x9a, 0xa1, 0x25, 0xbd,
  0xbd, 0x29, 0x12, 0xbe, 0xc0, 0xd0, 0x8c, 0xbe, 0x1d, 0x08, 0xa8, 0x3c,
  0x4e, 0xea, 0x81, 0x3e, 0xc4, 0x5f, 0xa0, 0x3d, 0x59, 0x11, 0x9d, 0x3d,
  0x7b, 0xea, 0x4f, 0xbd, 0x0b, 0xf2, 0x81, 0x3d, 0x5a, 0x4a, 0x72, 0xbd,
  0x36, 0xa6, 0x18, 0x3e, 0xc7, 0x83, 0xbb, 0xbd, 0x1b, 0x19, 0x87, 0x3c,
  0x2c, 0x4b, 0x4e, 0xbe, 0xab, 0x39, 0x92, 0xbd, 0x43, 0x8c, 0x28, 0xbe,
  0x30, 0xfa, 0x36, 0x3e, 0x26, 0x67, 0xc5, 0x3a, 0x9d, 0x95, 0x6a, 0xbe,
  0xb8, 0x42, 0x2d, 0xbd, 0xc6, 0x1c, 0x62, 0x3e, 0xf5, 0x9c, 0x7e, 0xbb,
  0xb0, 0x2c, 0xd6, 0x3d, 0x37, 0xeb, 0x78, 0x3d, 0x35, 0xa7, 0xca, 0x3c,
  0x0f, 0xf9, 0x1a, 0xbd, 0x68, 0x06, 0x2f, 0xbd, 0x47, 0x7d, 0xdc, 0xbd,
  0xd9, 0xf0, 0xa7, 0x3d, 0x45, 0x8a, 0x30, 0x3e, 0x81, 0xcc, 0x8a, 0x3d,
  0xe0, 0x14, 0xb9, 0x3e, 0x9b, 0x24, 0x58, 0x3c, 0x30, 0x60, 0xa8, 0xbc,
  0xf9, 0x67, 0x65, 0xbd, 0x41, 0xd2, 0x8b, 0x3c, 0x12, 0x56, 0x2a, 0xbe,
  0x98, 0xb7, 0x04, 0xbe, 0xbb, 0x36, 0xaa, 0xbe, 0x9c, 0xf3, 0x3b, 0x3e,
  0x31, 0x22, 0x8b, 0xbe, 0xbc, 0x7a, 0x3a, 0x3e, 0x13, 0x88, 0x1e, 0xbd,
  0xbe, 0xa6, 0x18, 0xbe, 0xc5, 0x71, 0xf1, 0xbc, 0xb3, 0x5b, 0x41, 0x3d,
  0x47, 0xaf, 0x99, 0x3d, 0x1e, 0xaf, 0xb4, 0x3e, 0xe9, 0x7f, 0x21, 0xbd,
  0xe8, 0x8b, 0x29, 0x3e, 0x83, 0x26, 0xda, 0x3c, 0x1d, 0xfb, 0x10, 0xbd,
  0xe3, 0x9a, 0x50, 0xbe, 0xde, 0xec, 0x70, 0xbe, 0xc3, 0x8b, 0x36, 0xbe,
  0x55, 0xfe, 0xe0, 0x3d, 0x32, 0xa3, 0x5e, 0xbe, 0xf2, 0xb1, 0x00, 0x3e,
  0xc6, 0xf7, 0xd6, 0xbe, 0xdb, 0x94, 0x80, 0xbe, 0x29, 0x53, 0xf8, 0xbd,
  0x28, 0xab, 0xd8, 0x3d, 0x51, 0x2a, 0x85, 0x3e, 0x82, 0xfd, 0xb1, 0x3e,
  0xec, 0xe3, 0x5c, 0xba, 0x1e, 0xb0, 0x3f, 0x3e, 0xa0, 0x7f, 0xac, 0x3d,
  0xdc, 0xd9, 0x76, 0x3d, 0xb9, 0x10, 0x89, 0xbe, 0x10, 0x3f, 0xfe, 0xbc,
  0xa8, 0xa3, 0x24, 0xbe, 0x27, 0x80, 0x5f, 0x3e, 0xa6, 0x41, 0xf8, 0x3c,
  0x57, 0x59, 0xa0, 0xbe, 0x4d, 0x55, 0xaa, 0xbe, 0x4f, 0x74, 0x1b, 0xbd,
  0xb6, 0x3c, 0xe0, 0xbc, 0x5f, 0x94, 0xe0, 0x3d, 0x9a, 0xde, 0x33, 0x3e,
  0x26, 0x5d, 0x1c, 0x3f, 0x53, 0xf7, 0x41, 0xbb, 0x30, 0x8a, 0x14, 0x3e,
  0x78, 0xf0, 0xf4, 0x3d, 0xe6, 0x89, 0x51, 0x3d, 0x35, 0x03, 0x29, 0x3e,
  0x8a, 0x49, 0x93, 0xbd, 0xdf, 0xd2, 0x9b, 0x3d, 0x64, 0x33, 0x86, 0x3e,
  0x4e, 0x2f, 0xbc, 0xbd, 0x9d, 0xc9, 0xc0, 0x3d, 0x5a, 0xcb, 0x04, 0xbe,
  0x4d, 0x0e, 0x24, 0xbd, 0xd6, 0x63, 0xc4, 0xbd, 0xf9, 0xc5, 0xc4, 0x3b,
  0x13, 0x3f, 0xd1, 0xbc, 0x28, 0x36, 0xfc, 0x3e, 0x1c, 0x1e, 0xbf, 0xbc,
  0xa1, 0x96, 0x36, 0x3d, 0xa8, 0x13, 0x19, 0x3e, 0xdb, 0x0d, 0x00, 0x3d,
  0x46, 0x4c, 0xb5, 0x3d, 0x14, 0x7e, 0x63, 0xbe, 0x01, 0xd4, 0xb9, 0xbe,
  0xbd, 0xeb, 0x52, 0x3e, 0xd6, 0x32, 0x1a, 0xbe, 0xed, 0x5e, 0xf4, 0x3d,
  0xe4, 0xe3, 0xf5, 0x3d, 0x68, 0x90, 0x01, 0xbe, 0x3a, 0x5a, 0x6c, 0x3d,
  0x6e, 0x64, 0x60, 0x3d, 0x09, 0x8b, 0x7c, 0x3d, 0xbd, 0x19, 0xc6, 0x3e,
  0xcc, 0x5b, 0x88, 0x3e, 0x95, 0x44, 0x80, 0x3c, 0xbe, 0x54, 0x74, 0x3d,
  0xbc, 0x60, 0x35, 0xbc, 0xc8, 0x42, 0x34, 0xbe, 0x42, 0x4d, 0x91, 0x3d,
  0xe1, 0x14, 0x95, 0xbe, 0x55, 0xa1, 0x54, 0x3e, 0x1e, 0xb9, 0x1c, 0xbe,
  0xb6, 0xec, 0x16, 0x3e, 0x54, 0xc7, 0x88, 0x3d, 0x00, 0xf3, 0xbb, 0xbd,
  0x44, 0xfe, 0xa3, 0xbd, 0xef, 0x1c, 0xc6, 0x3d, 0x19, 0x43, 0xfb, 0x3d,
  0xa3, 0xd9, 0x66, 0x3e, 0x7f, 0xfb, 0x18, 0x3d, 0x9d, 0x20, 0x04, 0xbd,
  0x0e, 0x9a, 0x84, 0x3d, 0x12, 0xa9, 0xe7, 0xbc, 0xea, 0x42, 0xa6, 0xbe,
  0x6d, 0x8b, 0x11, 0xbe, 0x86, 0x75, 0xd3, 0xbd, 0x30, 0x8f, 0x8a, 0xbd,
  0xee, 0xd3, 0x70, 0xbd, 0x45, 0x37, 0x14, 0x3e, 0x6e, 0x50, 0xc6, 0xbd,
  0x99, 0x47, 0x50, 0xbd, 0x62, 0xfd, 0xff, 0xff, 0x10, 0x00, 0x00, 0x00,
  0x07, 0x00, 0x00, 0x00, 0x14, 0x00, 0x00, 0x00, 0x2c, 0x00, 0x00, 0x00,
  0x02, 0x00, 0x00, 0x00, 0x10, 0x00, 0x00, 0x00, 0x70, 0x00, 0x00, 0x00,
  0x17, 0x00, 0x00, 0x00, 0x73, 0x65, 0x71, 0x75, 0x65, 0x6e, 0x74, 0x69,
  0x61, 0x6c, 0x2f, 0x64, 0x65, 0x6e, 0x73, 0x65, 0x2f, 0x4d, 0x61, 0x74,
  0x4d, 0x75, 0x6c, 0x00, 0xcc, 0xfc, 0xff, 0xff, 0xd6, 0xfd, 0xff, 0xff,
  0x04, 0x00, 0x00, 0x00, 0x08, 0x00, 0x00, 0x00, 0xff, 0xff, 0xff, 0xff,
  0x70, 0x00, 0x00, 0x00, 0x00, 0x00, 0x0e, 0x00, 0x18, 0x00, 0x08, 0x00,
  0x07, 0x00, 0x0c, 0x00, 0x10, 0x00, 0x14, 0x00, 0x0e, 0x00, 0x00, 0x00,
  0x00, 0x00, 0x00, 0x02, 0x10, 0x00, 0x00, 0x00, 0x06, 0x00, 0x00, 0x00,
  0x10, 0x00, 0x00, 0x00, 0x2c, 0x00, 0x00, 0x00, 0x01, 0x00, 0x00, 0x00,
  0x02, 0x00, 0x00, 0x00, 0x18, 0x00, 0x00, 0x00, 0x73, 0x65, 0x71, 0x75,
  0x65, 0x6e, 0x74, 0x69, 0x61, 0x6c, 0x2f, 0x66, 0x6c, 0x61, 0x74, 0x74,
  0x65, 0x6e, 0x2f, 0x43, 0x6f, 0x6e, 0x73, 0x74, 0x00, 0x00, 0x00, 0x00,
  0x34, 0xfd, 0xff, 0xff, 0x3e, 0xfe, 0xff, 0xff, 0x04, 0x00, 0x00, 0x00,
  0x10, 0x00, 0x00, 0x00, 0x78, 0x71, 0xbd, 0x3f, 0x3c, 0x5f, 0x09, 0xbf,
  0xc5, 0x90, 0x83, 0xc0, 0xcd, 0xcd, 0x1f, 0x3f, 0x26, 0xfe, 0xff, 0xff,
  0x10, 0x00, 0x00, 0x00, 0x05, 0x00, 0x00, 0x00, 0x10, 0x00, 0x00, 0x00,
  0x44, 0x00, 0x00, 0x00, 0x01, 0x00, 0x00, 0x00, 0x04, 0x00, 0x00, 0x00,
  0x32, 0x00, 0x00, 0x00, 0x73, 0x65, 0x71, 0x75, 0x65, 0x6e, 0x74, 0x69,
  0x61, 0x6c, 0x2f, 0x64, 0x65, 0x6e, 0x73, 0x65, 0x5f, 0x31, 0x2f, 0x42,
  0x69, 0x61, 0x73, 0x41, 0x64, 0x64, 0x2f, 0x52, 0x65, 0x61, 0x64, 0x56,
  0x61, 0x72, 0x69, 0x61, 0x62, 0x6c, 0x65, 0x4f, 0x70, 0x2f, 0x72, 0x65,
  0x73, 0x6f, 0x75, 0x72, 0x63, 0x65, 0x00, 0x00, 0xa8, 0xfd, 0xff, 0xff,
  0xb2, 0xfe, 0xff, 0xff, 0x04, 0x00, 0x00, 0x00, 0x40, 0x00, 0x00, 0x00,
  0xfc, 0x6c, 0x0e, 0xbf, 0xb4, 0x25, 0xf4, 0xbf, 0xf7, 0xf5, 0x09, 0xbe,
  0xa6, 0xca, 0xee, 0xbf, 0xed, 0x99, 0xa7, 0xbf, 0xcb, 0x43, 0x81, 0x3f,
  0x15, 0x3b, 0x8d, 0xbf, 0xa8, 0x54, 0x73, 0xbe, 0x4e, 0xfe, 0xb2, 0x3e,
  0x26, 0xb0, 0x8a, 0xbe, 0xf1, 0x79, 0x2c, 0xbe, 0x17, 0x4d, 0x5f, 0xbe,
  0x03, 0x57, 0x40, 0xbe, 0x83, 0x10, 0x79, 0xbe, 0x19, 0x38, 0xaf, 0x3e,
  0xa0, 0xac, 0x04, 0xc0, 0xca, 0xfe, 0xff, 0xff, 0x10, 0x00, 0x00, 0x00,
  0x04, 0x00, 0x00, 0x00, 0x10, 0x00, 0x00, 0x00, 0x44, 0x00, 0x00, 0x00,
  0x01, 0x00, 0x00, 0x00, 0x10, 0x00, 0x00, 0x00, 0x30, 0x00, 0x00, 0x00,
  0x73, 0x65, 0x71, 0x75, 0x65, 0x6e, 0x74, 0x69, 0x61, 0x6c, 0x2f, 0x64,
  0x65, 0x6e, 0x73, 0x65, 0x2f, 0x42, 0x69, 0x61, 0x73, 0x41, 0x64, 0x64,
  0x2f, 0x52, 0x65, 0x61, 0x64, 0x56, 0x61, 0x72, 0x69, 0x61, 0x62, 0x6c,
  0x65, 0x4f, 0x70, 0x2f, 0x72, 0x65, 0x73, 0x6f, 0x75, 0x72, 0x63, 0x65,
  0x00, 0x00, 0x00, 0x00, 0x4c, 0xfe, 0xff, 0xff, 0x56, 0xff, 0xff, 0xff,
  0x04, 0x00, 0x00, 0x00, 0x40, 0x00, 0x00, 0x00, 0xbe, 0xa3, 0x16, 0x3e,
  0xb2, 0x25, 0x1d, 0xc0, 0xb3, 0xd1, 0x8c, 0x3e, 0xf1, 0xf5, 0x7a, 0xbf,
  0xe1, 0x31, 0x4c, 0x3d, 0xf5, 0x67, 0x66, 0xc0, 0x30, 0x62, 0x72, 0xc0,
  0xbb, 0x93, 0x5c, 0xbb, 0x5b, 0x7f, 0xfa, 0x3b, 0x33, 0xba, 0xfe, 0x3b,
  0x93, 0xe6, 0xca, 0xbe, 0xf4, 0x3a, 0x8b, 0xbf, 0x01, 0x00, 0x9a, 0xbc,
  0x71, 0x85, 0xec, 0xbf, 0x39, 0x6a, 0x95, 0xbb, 0xa4, 0x0e, 0x42, 0xc0,
  0x6e, 0xff, 0xff, 0xff, 0x10, 0x00, 0x00, 0x00, 0x03, 0x00, 0x00, 0x00,
  0x10, 0x00, 0x00, 0x00, 0x48, 0x00, 0x00, 0x00, 0x01, 0x00, 0x00, 0x00,
  0x10, 0x00, 0x00, 0x00, 0x33, 0x00, 0x00, 0x00, 0x73, 0x65, 0x71, 0x75,
  0x65, 0x6e, 0x74, 0x69, 0x61, 0x6c, 0x2f, 0x63, 0x6f, 0x6e, 0x76, 0x32,
  0x64, 0x5f, 0x31, 0x2f, 0x42, 0x69, 0x61, 0x73, 0x41, 0x64, 0x64, 0x2f,
  0x52, 0x65, 0x61, 0x64, 0x56, 0x61, 0x72, 0x69, 0x61, 0x62, 0x6c, 0x65,
  0x4f, 0x70, 0x2f, 0x72, 0x65, 0x73, 0x6f, 0x75, 0x72, 0x63, 0x65, 0x00,
  0x04, 0x00, 0x06, 0x00, 0x04, 0x00, 0x00, 0x00, 0x00, 0x00, 0x06, 0x00,
  0x08, 0x00, 0x04, 0x00, 0x06, 0x00, 0x00, 0x00, 0x04, 0x00, 0x00, 0x00,
  0x20, 0x00, 0x00, 0x00, 0xc2, 0x34, 0x35, 0xc0, 0x6f, 0x5f, 0x0f, 0xc0,
  0xfc, 0x4b, 0xcd, 0xbf, 0x87, 0x29, 0xaf, 0x3c, 0x24, 0x29, 0xcf, 0xbf,
  0xfb, 0x8c, 0xb0, 0x3c, 0xb6, 0xee, 0x0f, 0xc0, 0xf2, 0x75, 0x25, 0xc0,
  0x00, 0x00, 0x0e, 0x00, 0x14, 0x00, 0x04, 0x00, 0x00, 0x00, 0x08, 0x00,
  0x0c, 0x00, 0x10, 0x00, 0x0e, 0x00, 0x00, 0x00, 0x10, 0x00, 0x00, 0x00,
  0x02, 0x00, 0x00, 0x00, 0x10, 0x00, 0x00, 0x00, 0x44, 0x00, 0x00, 0x00,
  0x01, 0x00, 0x00, 0x00, 0x08, 0x00, 0x00, 0x00, 0x31, 0x00, 0x00, 0x00,
  0x73, 0x65, 0x71, 0x75, 0x65, 0x6e, 0x74, 0x69, 0x61, 0x6c, 0x2f, 0x63,
  0x6f, 0x6e, 0x76, 0x32, 0x64, 0x2f, 0x42, 0x69, 0x61, 0x73, 0x41, 0x64,
  0x64, 0x2f, 0x52, 0x65, 0x61, 0x64, 0x56, 0x61, 0x72, 0x69, 0x61, 0x62,
  0x6c, 0x65, 0x4f, 0x70, 0x2f, 0x72, 0x65, 0x73, 0x6f, 0x75, 0x72, 0x63,
  0x65, 0x00, 0x00, 0x00, 0x90, 0xff, 0xff, 0xff, 0x14, 0x00, 0x18, 0x00,
  0x04, 0x00, 0x00, 0x00, 0x08, 0x00, 0x0c, 0x00, 0x10, 0x00, 0x00, 0x00,
  0x00, 0x00, 0x14, 0x00, 0x14, 0x00, 0x00, 0x00, 0x14, 0x00, 0x00, 0x00,
  0x01, 0x00, 0x00, 0x00, 0x20, 0x00, 0x00, 0x00, 0x44, 0x00, 0x00, 0x00,
  0x2c, 0x00, 0x00, 0x00, 0x04, 0x00, 0x00, 0x00, 0x01, 0x00, 0x00, 0x00,
  0x40, 0x00, 0x00, 0x00, 0x03, 0x00, 0x00, 0x00, 0x01, 0x00, 0x00, 0x00,
  0x0c, 0x00, 0x00, 0x00, 0x63, 0x6f, 0x6e, 0x76, 0x32, 0x64, 0x5f, 0x69,
  0x6e, 0x70, 0x75, 0x74, 0x00, 0x00, 0x00, 0x00, 0x04, 0x00, 0x00, 0x00,
  0xff, 0xff, 0xff, 0xff, 0x40, 0x00, 0x00, 0x00, 0x03, 0x00, 0x00, 0x00,
  0x01, 0x00, 0x00, 0x00, 0xfc, 0xff, 0xff, 0xff, 0x04, 0x00, 0x04, 0x00,
  0x04, 0x00, 0x00, 0x00
};
unsigned int _content_mbed08_model_model_tflite_len = 13120;
