unsigned char _content_mbed08_model_model_tflite[] = {
  0x1c, 0x00, 0x00, 0x00, 0x54, 0x46, 0x4c, 0x33, 0x14, 0x00, 0x20, 0x00,
  0x04, 0x00, 0x08, 0x00, 0x0c, 0x00, 0x10, 0x00, 0x14, 0x00, 0x00, 0x00,
  0x18, 0x00, 0x1c, 0x00, 0x14, 0x00, 0x00, 0x00, 0x03, 0x00, 0x00, 0x00,
  0x18, 0x00, 0x00, 0x00, 0x2c, 0x00, 0x00, 0x00, 0xd8, 0x00, 0x00, 0x00,
  0x2c, 0x00, 0x00, 0x00, 0x80, 0x00, 0x00, 0x00, 0x78, 0x00, 0x00, 0x00,
  0x05, 0x00, 0x00, 0x00, 0x28, 0x07, 0x00, 0x00, 0x44, 0x06, 0x00, 0x00,
  0xbc, 0x03, 0x00, 0x00, 0xf8, 0x02, 0x00, 0x00, 0xac, 0x01, 0x00, 0x00,
  0x01, 0x00, 0x00, 0x00, 0xd0, 0x00, 0x00, 0x00, 0x14, 0x00, 0x00, 0x00,
  0x98, 0x32, 0x00, 0x00, 0x94, 0x32, 0x00, 0x00, 0x8c, 0x31, 0x00, 0x00,
  0xd8, 0x30, 0x00, 0x00, 0x30, 0x30, 0x00, 0x00, 0xbc, 0x2f, 0x00, 0x00,
  0x50, 0x2f, 0x00, 0x00, 0x00, 0x13, 0x00, 0x00, 0xec, 0x11, 0x00, 0x00,
  0x10, 0x10, 0x00, 0x00, 0xb4, 0x07, 0x00, 0x00, 0x6c, 0x32, 0x00, 0x00,
  0x68, 0x32, 0x00, 0x00, 0x64, 0x32, 0x00, 0x00, 0x60, 0x32, 0x00, 0x00,
  0x5c, 0x32, 0x00, 0x00, 0x58, 0x32, 0x00, 0x00, 0x54, 0x32, 0x00, 0x00,
  0x50, 0x32, 0x00, 0x00, 0x3c, 0x00, 0x00, 0x00, 0x00, 0x00, 0x00, 0x00,
  0x01, 0x00, 0x00, 0x00, 0x0c, 0x00, 0x00, 0x00, 0x08, 0x00, 0x0c, 0x00,
  0x04, 0x00, 0x08, 0x00, 0x08, 0x00, 0x00, 0x00, 0x08, 0x00, 0x00, 0x00,
  0x13, 0x00, 0x00, 0x00, 0x13, 0x00, 0x00, 0x00, 0x6d, 0x69, 0x6e, 0x5f,
  0x72, 0x75, 0x6e, 0x74, 0x69, 0x6d, 0x65, 0x5f, 0x76, 0x65, 0x72, 0x73,
  0x69, 0x6f, 0x6e, 0x00, 0xfa, 0xce, 0xff, 0xff, 0x04, 0x00, 0x00, 0x00,
  0x10, 0x00, 0x00, 0x00, 0x31, 0x2e, 0x35, 0x2e, 0x30, 0x00, 0x00, 0x00,
  0x00, 0x00, 0x00, 0x00, 0x00, 0x00, 0x00, 0x00, 0x0f, 0x00, 0x00, 0x00,
  0x4d, 0x4c, 0x49, 0x52, 0x20, 0x43, 0x6f, 0x6e, 0x76, 0x65, 0x72, 0x74,
  0x65, 0x64, 0x2e, 0x00, 0x00, 0x00, 0x0e, 0x00, 0x18, 0x00, 0x04, 0x00,
  0x08, 0x00, 0x0c, 0x00, 0x10, 0x00, 0x14, 0x00, 0x0e, 0x00, 0x00, 0x00,
  0x14, 0x00, 0x00, 0x00, 0x5c, 0x00, 0x00, 0x00, 0x60, 0x00, 0x00, 0x00,
  0x64, 0x00, 0x00, 0x00, 0x84, 0x00, 0x00, 0x00, 0x12, 0x00, 0x00, 0x00,
  0x58, 0x31, 0x00, 0x00, 0xe8, 0x30, 0x00, 0x00, 0x44, 0x30, 0x00, 0x00,
  0x9c, 0x2f, 0x00, 0x00, 0xf4, 0x2e, 0x00, 0x00, 0x94, 0x2e, 0x00, 0x00,
  0x2c, 0x2e, 0x00, 0x00, 0xd8, 0x11, 0x00, 0x00, 0xbc, 0x10, 0x00, 0x00,
  0xe0, 0x0e, 0x00, 0x00, 0x0c, 0x06, 0x00, 0x00, 0x28, 0x05, 0x00, 0x00,
  0xe8, 0x03, 0x00, 0x00, 0x3c, 0x03, 0x00, 0x00, 0x98, 0x02, 0x00, 0x00,
  0xd4, 0x01, 0x00, 0x00, 0x10, 0x01, 0x00, 0x00, 0x84, 0x00, 0x00, 0x00,
  0x01, 0x00, 0x00, 0x00, 0x00, 0x00, 0x00, 0x00, 0x01, 0x00, 0x00, 0x00,
  0x11, 0x00, 0x00, 0x00, 0x08, 0x00, 0x00, 0x00, 0x74, 0x05, 0x00, 0x00,
  0x94, 0x04, 0x00, 0x00, 0x78, 0x03, 0x00, 0x00, 0xbc, 0x02, 0x00, 0x00,
  0x30, 0x02, 0x00, 0x00, 0x50, 0x01, 0x00, 0x00, 0xa8, 0x00, 0x00, 0x00,
  0x10, 0x00, 0x00, 0x00, 0x04, 0x00, 0x00, 0x00, 0x6d, 0x61, 0x69, 0x6e,
  0x00, 0x00, 0x00, 0x00, 0x7a, 0xff, 0xff, 0xff, 0x00, 0x00, 0x00, 0x09,
  0x04, 0x00, 0x00, 0x00, 0x1c, 0x00, 0x00, 0x00, 0x10, 0x00, 0x00, 0x00,
  0x04, 0x00, 0x00, 0x00, 0xf6, 0xcf, 0xff, 0xff, 0x00, 0x00, 0x80, 0x3f,
  0x01, 0x00, 0x00, 0x00, 0x11, 0x00, 0x00, 0x00, 0x01, 0x00, 0x00, 0x00,
  0x10, 0x00, 0x00, 0x00, 0xa0, 0xfa, 0xff, 0xff, 0x19, 0x00, 0x00, 0x00,
  0x00, 0x00, 0x00, 0x19, 0x01, 0x00, 0x00, 0x00, 0x84, 0xcf, 0xff, 0xff,
  0x14, 0x00, 0x00, 0x00, 0x12, 0x00, 0x00, 0x00, 0x18, 0x00, 0x00, 0x00,
  0x30, 0x00, 0x00, 0x00, 0x20, 0x00, 0x00, 0x00, 0x02, 0x00, 0x00, 0x00,
  0x01, 0x00, 0x00, 0x00, 0x03, 0x00, 0x00, 0x00, 0x08, 0x00, 0x00, 0x00,
  0x49, 0x64, 0x65, 0x6e, 0x74, 0x69, 0x74, 0x79, 0x00, 0x00, 0x00, 0x00,
  0x02, 0x00, 0x00, 0x00, 0xff, 0xff, 0xff, 0xff, 0x03, 0x00, 0x00, 0x00,
  0x68, 0xd0, 0xff, 0xff, 0x00, 0x00, 0x0e, 0x00, 0x18, 0x00, 0x08, 0x00,
  0x0c, 0x00, 0x10, 0x00, 0x07, 0x00, 0x14, 0x00, 0x0e, 0x00, 0x00, 0x00,
  0x00, 0x00, 0x00, 0x08, 0x03, 0x00, 0x00, 0x00, 0x18, 0x00, 0x00, 0x00,
  0x0c, 0x00, 0x00, 0x00, 0x04, 0x00, 0x00, 0x00, 0x84, 0xcf, 0xff, 0xff,
  0x01, 0x00, 0x00, 0x00, 0x10, 0x00, 0x00, 0x00, 0x03, 0x00, 0x00, 0x00,
  0x0f, 0x00, 0x00, 0x00, 0x07, 0x00, 0x00, 0x00, 0x04, 0x00, 0x00, 0x00,
  0x0c, 0xd0, 0xff, 0xff, 0x14, 0x00, 0x00, 0x00, 0x11, 0x00, 0x00, 0x00,
  0x18, 0x00, 0x00, 0x00, 0x5c, 0x00, 0x00, 0x00, 0x4c, 0x00, 0x00, 0x00,
  0x02, 0x00, 0x00, 0x00, 0x01, 0x00, 0x00, 0x00, 0x03, 0x00, 0x00, 0x00,
  0x34, 0x00, 0x00, 0x00, 0x73, 0x65, 0x71, 0x75, 0x65, 0x6e, 0x74, 0x69,
  0x61, 0x6c, 0x2f, 0x64, 0x65, 0x6e, 0x73, 0x65, 0x5f, 0x31, 0x2f, 0x4d,
  0x61, 0x74, 0x4d, 0x75, 0x6c, 0x3b, 0x73, 0x65, 0x71, 0x75, 0x65, 0x6e,
  0x74, 0x69, 0x61, 0x6c, 0x2f, 0x64, 0x65, 0x6e, 0x73, 0x65, 0x5f, 0x31,
  0x2f, 0x42, 0x69, 0x61, 0x73, 0x41, 0x64, 0x64, 0x00, 0x00, 0x00, 0x00,
  0x02, 0x00, 0x00, 0x00, 0xff, 0xff, 0xff, 0xff, 0x03, 0x00, 0x00, 0x00,
  0x0c, 0xd0, 0xff, 0xff, 0xda, 0xfc, 0xff, 0xff, 0x00, 0x00, 0x00, 0x08,
  0x03, 0x00, 0x00, 0x00, 0x24, 0x00, 0x00, 0x00, 0x18, 0x00, 0x00, 0x00,
  0x0c, 0x00, 0x00, 0x00, 0x00, 0x00, 0x06, 0x00, 0x08, 0x00, 0x07, 0x00,
  0x06, 0x00, 0x00, 0x00, 0x00, 0x00, 0x00, 0x01, 0x01, 0x00, 0x00, 0x00,
  0x0f, 0x00, 0x00, 0x00, 0x03, 0x00, 0x00, 0x00, 0x0e, 0x00, 0x00, 0x00,
  0x06, 0x00, 0x00, 0x00, 0x03, 0x00, 0x00, 0x00, 0xe8, 0xfb, 0xff, 0xff,
  0x09, 0x00, 0x00, 0x00, 0x00, 0x00, 0x00, 0x09, 0x01, 0x00, 0x00, 0x00,
  0xcc, 0xd0, 0xff, 0xff, 0x14, 0x00, 0x00, 0x00, 0x10, 0x00, 0x00, 0x00,
  0x18, 0x00, 0x00, 0x00, 0x6c, 0x00, 0x00, 0x00, 0x5c, 0x00, 0x00, 0x00,
  0x02, 0x00, 0x00, 0x00, 0x01, 0x00, 0x00, 0x00, 0x10, 0x00, 0x00, 0x00,
  0x46, 0x00, 0x00, 0x00, 0x73, 0x65, 0x71, 0x75, 0x65, 0x6e, 0x74, 0x69,
  0x61, 0x6c, 0x2f, 0x64, 0x65, 0x6e, 0x73, 0x65, 0x2f, 0x4d, 0x61, 0x74,
  0x4d, 0x75, 0x6c, 0x3b, 0x73, 0x65, 0x71, 0x75, 0x65, 0x6e, 0x74, 0x69,
  0x61, 0x6c, 0x2f, 0x64, 0x65, 0x6e, 0x73, 0x65, 0x2f, 0x52, 0x65, 0x6c,
  0x75, 0x3b, 0x73, 0x65, 0x71, 0x75, 0x65, 0x6e, 0x74, 0x69, 0x61, 0x6c,
  0x2f, 0x64, 0x65, 0x6e, 0x73, 0x65, 0x2f, 0x42, 0x69, 0x61, 0x73, 0x41,
  0x64, 0x64, 0x00, 0x00, 0x02, 0x00, 0x00, 0x00, 0xff, 0xff, 0xff, 0xff,
  0x10, 0x00, 0x00, 0x00, 0xec, 0xd1, 0xff, 0xff, 0x00, 0x00, 0x0a, 0x00,
  0x10, 0x00, 0x04, 0x00, 0x08, 0x00, 0x0c, 0x00, 0x0a, 0x00, 0x00, 0x00,
  0x02, 0x00, 0x00, 0x00, 0x10, 0x00, 0x00, 0x00, 0x04, 0x00, 0x00, 0x00,
  0x01, 0x00, 0x00, 0x00, 0x0e, 0x00, 0x00, 0x00, 0x02, 0x00, 0x00, 0x00,
  0x0d, 0x00, 0x00, 0x00, 0x05, 0x00, 0x00, 0x00, 0xa8, 0xfc, 0xff, 0xff,
  0x16, 0x00, 0x00, 0x00, 0x00, 0x00, 0x00, 0x16, 0x01, 0x00, 0x00, 0x00,
  0x8c, 0xd1, 0xff, 0xff, 0x14, 0x00, 0x00, 0x00, 0x0f, 0x00, 0x00, 0x00,
  0x18, 0x00, 0x00, 0x00, 0x40, 0x00, 0x00, 0x00, 0x30, 0x00, 0x00, 0x00,
  0x02, 0x00, 0x00, 0x00, 0x01, 0x00, 0x00, 0x00, 0x70, 0x00, 0x00, 0x00,
  0x1a, 0x00, 0x00, 0x00, 0x73, 0x65, 0x71, 0x75, 0x65, 0x6e, 0x74, 0x69,
  0x61, 0x6c, 0x2f, 0x66, 0x6c, 0x61, 0x74, 0x74, 0x65, 0x6e, 0x2f, 0x52,
  0x65, 0x73, 0x68, 0x61, 0x70, 0x65, 0x00, 0x00, 0x02, 0x00, 0x00, 0x00,
  0xff, 0xff, 0xff, 0xff, 0x70, 0x00, 0x00, 0x00, 0x70, 0xd1, 0xff, 0xff,
  0x3e, 0xfe, 0xff, 0xff, 0x00, 0x00, 0x00, 0x05, 0x01, 0x00, 0x00, 0x00,
  0x38, 0x00, 0x00, 0x00, 0x2c, 0x00, 0x00, 0x00, 0x14, 0x00, 0x00, 0x00,
  0x00, 0x00, 0x0e, 0x00, 0x14, 0x00, 0x00, 0x00, 0x10, 0x00, 0x0c, 0x00,
  0x08, 0x00, 0x04, 0x00, 0x0e, 0x00, 0x00, 0x00, 0x03, 0x00, 0x00, 0x00,
  0x01, 0x00, 0x00, 0x00, 0x03, 0x00, 0x00, 0x00, 0x01, 0x00, 0x00, 0x00,
  0x01, 0x00, 0x00, 0x00, 0x0d, 0x00, 0x00, 0x00, 0x01, 0x00, 0x00, 0x00,
  0x0c, 0x00, 0x00, 0x00, 0x2c, 0xd2, 0xff, 0xff, 0x14, 0x00, 0x00, 0x00,
  0x0e, 0x00, 0x00, 0x00, 0x20, 0x00, 0x00, 0x00, 0x58, 0x00, 0x00, 0x00,
  0x40, 0x00, 0x00, 0x00, 0x04, 0x00, 0x00, 0x00, 0x01, 0x00, 0x00, 0x00,
  0x07, 0x00, 0x00, 0x00, 0x01, 0x00, 0x00, 0x00, 0x10, 0x00, 0x00, 0x00,
  0x22, 0x00, 0x00, 0x00, 0x73, 0x65, 0x71, 0x75, 0x65, 0x6e, 0x74, 0x69,
  0x61, 0x6c, 0x2f, 0x6d, 0x61, 0x78, 0x5f, 0x70, 0x6f, 0x6f, 0x6c, 0x69,
  0x6e, 0x67, 0x32, 0x64, 0x5f, 0x31, 0x2f, 0x4d, 0x61, 0x78, 0x50, 0x6f,
  0x6f, 0x6c, 0x00, 0x00, 0x04, 0x00, 0x00, 0x00, 0xff, 0xff, 0xff, 0xff,
  0x07, 0x00, 0x00, 0x00, 0x01, 0x00, 0x00, 0x00, 0x10, 0x00, 0x00, 0x00,
  0x28, 0xd2, 0xff, 0xff, 0x1a, 0xfe, 0xff, 0xff, 0x00, 0x00, 0x00, 0x01,
  0x24, 0x00, 0x00, 0x00, 0x18, 0x00, 0x00, 0x00, 0x04, 0x00, 0x00, 0x00,
  0x0c, 0xfe, 0xff, 0xff, 0x01, 0x00, 0x00, 0x00, 0x01, 0x00, 0x00, 0x00,
  0x00, 0x00, 0x00, 0x01, 0x01, 0x00, 0x00, 0x00, 0x0c, 0x00, 0x00, 0x00,
  0x03, 0x00, 0x00, 0x00, 0x0b, 0x00, 0x00, 0x00, 0x09, 0x00, 0x00, 0x00,
  0x02, 0x00, 0x00, 0x00, 0xd4, 0xd2, 0xff, 0xff, 0x14, 0x00, 0x00, 0x00,
  0x0d, 0x00, 0x00, 0x00, 0x20, 0x00, 0x00, 0x00, 0xb8, 0x00, 0x00, 0x00,
  0xa0, 0x00, 0x00, 0x00, 0x04, 0x00, 0x00, 0x00, 0x01, 0x00, 0x00, 0x00,
  0x15, 0x00, 0x00, 0x00, 0x01, 0x00, 0x00, 0x00, 0x10, 0x00, 0x00, 0x00,
  0x83, 0x00, 0x00, 0x00, 0x73, 0x65, 0x71, 0x75, 0x65, 0x6e, 0x74, 0x69,
  0x61, 0x6c, 0x2f, 0x63, 0x6f, 0x6e, 0x76, 0x32, 0x64, 0x5f, 0x31, 0x2f,
  0x52, 0x65, 0x6c, 0x75, 0x3b, 0x73, 0x65, 0x71, 0x75, 0x65, 0x6e, 0x74,
  0x69, 0x61, 0x6c, 0x2f, 0x63, 0x6f, 0x6e, 0x76, 0x32, 0x64, 0x5f, 0x31,
  0x2f, 0x42, 0x69, 0x61, 0x73, 0x41, 0x64, 0x64, 0x3b, 0x73, 0x65, 0x71,
  0x75, 0x65, 0x6e, 0x74, 0x69, 0x61, 0x6c, 0x2f, 0x63, 0x6f, 0x6e, 0x76,
  0x32, 0x64, 0x5f, 0x31, 0x2f, 0x43, 0x6f, 0x6e, 0x76, 0x32, 0x44, 0x3b,
  0x73, 0x65, 0x71, 0x75, 0x65, 0x6e, 0x74, 0x69, 0x61, 0x6c, 0x2f, 0x63,
  0x6f, 0x6e, 0x76, 0x32, 0x64, 0x5f, 0x31, 0x2f, 0x42, 0x69, 0x61, 0x73,
  0x41, 0x64, 0x64, 0x2f, 0x52, 0x65, 0x61, 0x64, 0x56, 0x61, 0x72, 0x69,
  0x61, 0x62, 0x6c, 0x65, 0x4f, 0x70, 0x2f, 0x72, 0x65, 0x73, 0x6f, 0x75,
  0x72, 0x63, 0x65, 0x00, 0x04, 0x00, 0x00, 0x00, 0xff, 0xff, 0xff, 0xff,
  0x15, 0x00, 0x00, 0x00, 0x01, 0x00, 0x00, 0x00, 0x10, 0x00, 0x00, 0x00,
  0x40, 0xd4, 0xff, 0xff, 0x00, 0x00, 0x0e, 0x00, 0x1a, 0x00, 0x08, 0x00,
  0x0c, 0x00, 0x10, 0x00, 0x07, 0x00, 0x14, 0x00, 0x0e, 0x00, 0x00, 0x00,
  0x00, 0x00, 0x00, 0x05, 0x01, 0x00, 0x00, 0x00, 0x3c, 0x00, 0x00, 0x00,
  0x30, 0x00, 0x00, 0x00, 0x14, 0x00, 0x00, 0x00, 0x00, 0x00, 0x0e, 0x00,
  0x18, 0x00, 0x17, 0x00, 0x10, 0x00, 0x0c, 0x00, 0x08, 0x00, 0x04, 0x00,
  0x0e, 0x00, 0x00, 0x00, 0x03, 0x00, 0x00, 0x00, 0x03, 0x00, 0x00, 0x00,
  0x03, 0x00, 0x00, 0x00, 0x03, 0x00, 0x00, 0x00, 0x00, 0x00, 0x00, 0x01,
  0x01, 0x00, 0x00, 0x00, 0x0b, 0x00, 0x00, 0x00, 0x01, 0x00, 0x00, 0x00,
  0x0a, 0x00, 0x00, 0x00, 0x2c, 0xff, 0xff, 0xff, 0x11, 0x00, 0x00, 0x00,
  0x00, 0x00, 0x00, 0x11, 0x01, 0x00, 0x00, 0x00, 0x10, 0xd4, 0xff, 0xff,
  0x14, 0x00, 0x00, 0x00, 0x0c, 0x00, 0x00, 0x00, 0x20, 0x00, 0x00, 0x00,
  0x58, 0x00, 0x00, 0x00, 0x40, 0x00, 0x00, 0x00, 0x04, 0x00, 0x00, 0x00,
  0x01, 0x00, 0x00, 0x00, 0x15, 0x00, 0x00, 0x00, 0x01, 0x00, 0x00, 0x00,
  0x08, 0x00, 0x00, 0x00, 0x20, 0x00, 0x00, 0x00, 0x73, 0x65, 0x71, 0x75,
  0x65, 0x6e, 0x74, 0x69, 0x61, 0x6c, 0x2f, 0x6d, 0x61, 0x78, 0x5f, 0x70,
  0x6f, 0x6f, 0x6c, 0x69, 0x6e, 0x67, 0x32, 0x64, 0x2f, 0x4d, 0x61, 0x78,
  0x50, 0x6f, 0x6f, 0x6c, 0x00, 0x00, 0x00, 0x00, 0x04, 0x00, 0x00, 0x00,
  0xff, 0xff, 0xff, 0xff, 0x15, 0x00, 0x00, 0x00, 0x01, 0x00, 0x00, 0x00,
  0x08, 0x00, 0x00, 0x00, 0x1c, 0xd5, 0xff, 0xff, 0x00, 0x00, 0x0e, 0x00,
  0x14, 0x00, 0x00, 0x00, 0x08, 0x00, 0x0c, 0x00, 0x07, 0x00, 0x10, 0x00,
  0x0e, 0x00, 0x00, 0x00, 0x00, 0x00, 0x00, 0x01, 0x30, 0x00, 0x00, 0x00,
  0x24, 0x00, 0x00, 0x00, 0x10, 0x00, 0x00, 0x00, 0x0c, 0x00, 0x10, 0x00,
  0x00, 0x00, 0x04, 0x00, 0x08, 0x00, 0x0f, 0x00, 0x0c, 0x00, 0x00, 0x00,
  0x01, 0x00, 0x00, 0x00, 0x01, 0x00, 0x00, 0x00, 0x00, 0x00, 0x00, 0x01,
  0x01, 0x00, 0x00, 0x00, 0x0a, 0x00, 0x00, 0x00, 0x03, 0x00, 0x00, 0x00,
  0x00, 0x00, 0x00, 0x00, 0x08, 0x00, 0x00, 0x00, 0x01, 0x00, 0x00, 0x00,
  0x0c, 0x00, 0x10, 0x00, 0x0b, 0x00, 0x00, 0x00, 0x0c, 0x00, 0x04, 0x00,
  0x0c, 0x00, 0x00, 0x00, 0x03, 0x00, 0x00, 0x00, 0x00, 0x00, 0x00, 0x03,
  0x01, 0x00, 0x00, 0x00, 0xf0, 0xd4, 0xff, 0xff, 0x14, 0x00, 0x00, 0x00,
  0x0b, 0x00, 0x00, 0x00, 0x20, 0x00, 0x00, 0x00, 0xb0, 0x00, 0x00, 0x00,
  0x98, 0x00, 0x00, 0x00, 0x04, 0x00, 0x00, 0x00, 0x01, 0x00, 0x00, 0x00,
  0x40, 0x00, 0x00, 0x00, 0x03, 0x00, 0x00, 0x00, 0x08, 0x00, 0x00, 0x00,
  0x7b, 0x00, 0x00, 0x00, 0x73, 0x65, 0x71, 0x75, 0x65, 0x6e, 0x74, 0x69,
  0x61, 0x6c, 0x2f, 0x63, 0x6f, 0x6e, 0x76, 0x32, 0x64, 0x2f, 0x52, 0x65,
  0x6c, 0x75, 0x3b, 0x73, 0x65, 0x71, 0x75, 0x65, 0x6e, 0x74, 0x69, 0x61,
  0x6c, 0x2f, 0x63, 0x6f, 0x6e, 0x76, 0x32, 0x64, 0x2f, 0x42, 0x69, 0x61,
  0x73, 0x41, 0x64, 0x64, 0x3b, 0x73, 0x65, 0x71, 0x75, 0x65, 0x6e, 0x74,
  0x69, 0x61, 0x6c, 0x2f, 0x63, 0x6f, 0x6e, 0x76, 0x32, 0x64, 0x2f, 0x43,
  0x6f, 0x6e, 0x76, 0x32, 0x44, 0x3b, 0x73, 0x65, 0x71, 0x75, 0x65, 0x6e,
  0x74, 0x69, 0x61, 0x6c, 0x2f, 0x63, 0x6f, 0x6e, 0x76, 0x32, 0x64, 0x2f,
  0x42, 0x69, 0x61, 0x73, 0x41, 0x64, 0x64, 0x2f, 0x52, 0x65, 0x61, 0x64,
  0x56, 0x61, 0x72, 0x69, 0x61, 0x62, 0x6c, 0x65, 0x4f, 0x70, 0x2f, 0x72,
  0x65, 0x73, 0x6f, 0x75, 0x72, 0x63, 0x65, 0x00, 0x04, 0x00, 0x00, 0x00,
  0xff, 0xff, 0xff, 0xff, 0x40, 0x00, 0x00, 0x00, 0x03, 0x00, 0x00, 0x00,
  0x08, 0x00, 0x00, 0x00, 0x44, 0xd5, 0xff, 0xff, 0x4e, 0xd6, 0xff, 0xff,
  0x04, 0x00, 0x00, 0x00, 0x00, 0x08, 0x00, 0x00, 0xa5, 0x45, 0x6e, 0xbe,
  0x93, 0xa1, 0x74, 0xbe, 0x5b, 0x5d, 0xfd, 0xbc, 0x20, 0x9d, 0x16, 0xbf,
  0xc2, 0x4a, 0x07, 0xbf, 0x67, 0xae, 0x9b, 0xbe, 0x9e, 0x33, 0xe2, 0xbe,
  0xfd, 0xf0, 0x9c, 0xbe, 0x4c, 0x3e, 0x1e, 0xbe, 0x2e, 0xe5, 0x8d, 0x3c,
  0x37, 0xfb, 0xf3, 0xbd, 0x50, 0xda, 0x1a, 0x3e, 0x7e, 0xf0, 0x95, 0xbe,
  0xda, 0xb4, 0x14, 0xbe, 0xec, 0x43, 0x5b, 0x3e, 0x42, 0xb6, 0xcc, 0x3d,
  0xdf, 0xac, 0xe2, 0xbd, 0x7d, 0x33, 0x13, 0x3e, 0x86, 0xfa, 0x68, 0x3d,
  0xae, 0xe0, 0xba, 0xbd, 0x9e, 0xa5, 0xe2, 0xbd, 0x1f, 0xc6, 0xc7, 0xb9,
  0x96, 0xa0, 0x5f, 0x3e, 0x67, 0x1e, 0xdc, 0x3d, 0x48, 0x02, 0xa8, 0xbd,
  0xe8, 0x19, 0x55, 0x3e, 0xae, 0xf4, 0x8d, 0x3d, 0x1a, 0xa8, 0x98, 0xbc,
  0x86, 0xd8, 0x40, 0xbe, 0xb0, 0x91, 0xf0, 0x3c, 0x67, 0xba, 0xb9, 0x3d,
  0x06, 0xc5, 0x4a, 0x3e, 0xf9, 0x27, 0x1e, 0xbe, 0xb4, 0x7b, 0x96, 0xbe,
  0x97, 0x7d, 0x87, 0xbe, 0x30, 0x4b, 0x9e, 0xbe, 0xd6, 0x9b, 0x0e, 0x3d,
  0xc6, 0xe8, 0x90, 0xbd, 0x2d, 0x21, 0x59, 0xbe, 0xef, 0xba, 0x27, 0xbe,
  0x24, 0x37, 0xb3, 0xbe, 0xec, 0x81, 0x98, 0x3d, 0x53, 0xa5, 0x69, 0xbe,
  0xe6, 0xba, 0x61, 0x3e, 0x86, 0xf4, 0xbb, 0x3d, 0x00, 0x26, 0x2b, 0xbd,
  0xd3, 0x0e, 0x30, 0x3e, 0x58, 0x0e, 0xb7, 0xbc, 0xd3, 0x49, 0xb3, 0xbe,
  0x9e, 0x8a, 0x45, 0x3e, 0x63, 0x3d, 0x1f, 0xbd, 0xf9, 0x5f, 0x4a, 0x3d,
  0x2a, 0x01, 0xc9, 0xbd, 0x61, 0x40, 0x89, 0xbe, 0x9a, 0xf2, 0xc3, 0xbd,
  0xc5, 0x1a, 0x55, 0xbc, 0xf2, 0xe9, 0x9b, 0xbc, 0xf1, 0xc1, 0x17, 0x3e,
  0x61, 0xbe, 0xb3, 0x3d, 0x30, 0xad, 0x85, 0xbc, 0xab, 0x98, 0xc2, 0x3d,
  0xbe, 0xcb, 0x38, 0x3c, 0xd1, 0x17, 0xe5, 0xbd, 0xc4, 0x88, 0xf1, 0x3d,
  0x7c, 0x0e, 0x95, 0x3d, 0xa9, 0x16, 0xe8, 0xbd, 0x6e, 0xba, 0xab, 0x3b,
  0xd8, 0x2b, 0x54, 0xbe, 0xd8, 0xc8, 0x3f, 0xbe, 0x5a, 0x96, 0x70, 0xbe,
  0xf2, 0xab, 0xac, 0xbe, 0xa7, 0x05, 0x17, 0xbe, 0xa1, 0x53, 0x08, 0xbe,
  0xf0, 0x17, 0x01, 0xbe, 0xa8, 0x6f, 0x39, 0xbe, 0x30, 0xc5, 0x59, 0x3e,
  0x7e, 0x77, 0xae, 0xbe, 0xbd, 0xdb, 0x1f, 0x3d, 0xf0, 0x98, 0x69, 0xbe,
  0xd8, 0x77, 0xa4, 0xbe, 0xc5, 0x51, 0x02, 0xbe, 0xf4, 0xc6, 0x44, 0xbd,
  0x97, 0xd9, 0x92, 0xbe, 0xa3, 0x65, 0xdd, 0x3c, 0xd9, 0x1a, 0x25, 0xbe,
  0x3b, 0x0b, 0x81, 0xbe, 0xb8, 0x77, 0xba, 0x3d, 0xc6, 0x16, 0xd2, 0x3d,
  0xdd, 0xf0, 0x21, 0xbe, 0x8f, 0x20, 0xe5, 0xbc, 0xed, 0xff, 0x1a, 0xbe,
  0xef, 0x6b, 0x4c, 0xbe, 0x5a, 0xa1, 0x8b, 0x3e, 0x13, 0xbe, 0x81, 0x3e,
  0x39, 0x7c, 0x53, 0xbd, 0x9b, 0xb3, 0x5b, 0xbd, 0x88, 0x19, 0xb8, 0xbd,
  0x64, 0x18, 0xea, 0xbd, 0x0d, 0x84, 0x6f, 0xbe, 0xa3, 0xd1, 0xc4, 0xbe,
  0x66, 0xc4, 0x44, 0xbe, 0xcc, 0x29, 0x28, 0xbe, 0xd6, 0xdc, 0x9a, 0xbe,
  0xf6, 0x49, 0xc9, 0xbe, 0x64, 0xf6, 0x93, 0x3e, 0xef, 0xf2, 0x98, 0x3e,
  0x8f, 0x88, 0x9d, 0x3e, 0x44, 0x64, 0x2b, 0xbf, 0x53, 0x01, 0x94, 0x3e,
  0x1d, 0x38, 0x65, 0x3e, 0xd3, 0xc6, 0xe2, 0xbe, 0x20, 0xde, 0xa6, 0xbe,
  0x3b, 0xd0, 0x74, 0xbd, 0x92, 0x90, 0x5e, 0xbd, 0x68, 0x79, 0x4e, 0x3e,
  0xef, 0x9f, 0x58, 0x3e, 0xba, 0xad, 0x69, 0xbe, 0x80, 0x82, 0x22, 0x3e,
  0x5f, 0x88, 0x82, 0xbe, 0xa5, 0xea, 0xad, 0x3c, 0x1b, 0x5e, 0xef, 0xbe,
  0x7c, 0x32, 0x85, 0xbe, 0x91, 0x12, 0x64, 0xbe, 0x85, 0x2b, 0x0c, 0x3e,
  0x7c, 0xf6, 0xa9, 0xbe, 0x53, 0x05, 0x4d, 0x3c, 0xbe, 0x8f, 0xd2, 0x3d,
  0x9d, 0x3d, 0xb7, 0xbc, 0x68, 0x2a, 0x8d, 0xbe, 0x5a, 0x43, 0x9f, 0xbd,
  0x89, 0x27, 0x58, 0x3e, 0x4c, 0xac, 0x8a, 0xbe, 0xcb, 0x80, 0x26, 0xbe,
  0xac, 0x06, 0x66, 0xbe, 0xb4, 0x16, 0x8a, 0xbe, 0x40, 0xaf, 0x03, 0xbe,
  0x5e, 0x6a, 0x29, 0x3e, 0x7a, 0x3a, 0x04, 0x3e, 0x5b, 0xef, 0x22, 0x3d,
  0xd5, 0x5c, 0x1e, 0xbe, 0x83, 0x35, 0x4b, 0xbe, 0xe9, 0x34, 0xac, 0x3e,
  0x6a, 0x97, 0x4b, 0xbe, 0x3c, 0xd2, 0x24, 0xbe, 0xec, 0x18, 0x1e, 0xbe,
  0xd8, 0xf7, 0xa4, 0xbd, 0x81, 0x97, 0xad, 0xbc, 0x03, 0x45, 0xcb, 0x3c,
  0xa2, 0xbd, 0xa7, 0xbe, 0x84, 0xc0, 0x50, 0x3e, 0x9a, 0xd4, 0x68, 0xbc,
  0x6d, 0x3d, 0x24, 0x3d, 0x96, 0x27, 0x45, 0xbd, 0xd8, 0xd4, 0x3f, 0x3c,
  0xd4, 0xe9, 0x96, 0xbe, 0x82, 0x29, 0x29, 0x3d, 0x4a, 0x63, 0x81, 0xbe,
  0xaa, 0x89, 0xc5, 0xbe, 0xed, 0xf7, 0xe1, 0x3c, 0xcb, 0xa8, 0xab, 0xbb,
  0x22, 0xcc, 0x97, 0xbd, 0x5e, 0xdf, 0x2a, 0xbd, 0x9e, 0x0a, 0x31, 0x3e,
  0x97, 0x3a, 0x74, 0xbd, 0x38, 0xb7, 0xfd, 0xbb, 0x28, 0xfe, 0x22, 0x3f,
  0x99, 0xf8, 0x42, 0xbe, 0xe7, 0x63, 0x88, 0xbd, 0x61, 0xda, 0x22, 0xbe,
  0x74, 0xcd, 0x08, 0xbe, 0x93, 0xd0, 0x83, 0xbe, 0x1e, 0xfd, 0x57, 0xbd,
  0x35, 0xe4, 0x49, 0xbe, 0x5e, 0x58, 0x5a, 0x3d, 0x81, 0xf2, 0xdd, 0xbd,
  0xa0, 0x70, 0x94, 0xbd, 0x7a, 0xc0, 0x38, 0xbe, 0x5c, 0x47, 0x24, 0xbe,
  0xf6, 0x29, 0xca, 0xbe, 0x96, 0xbf, 0x06, 0xbd, 0xa4, 0x06, 0x8e, 0xbe,
  0x37, 0x4c, 0xb0, 0xbe, 0x5e, 0x9f, 0xc4, 0xbd, 0x32, 0xd1, 0xb0, 0xbd,
  0x59, 0xdf, 0x6f, 0xbb, 0xc0, 0x21, 0xa1, 0xbd, 0xb7, 0x9f, 0xe8, 0xbc,
  0x58, 0x57, 0xd4, 0x3b, 0x30, 0x46, 0xfc, 0x3d, 0xcd, 0x9d, 0x9c, 0x3e,
  0xc7, 0xa1, 0xbd, 0x3d, 0x6e, 0x3a, 0xb8, 0x3d, 0xe8, 0xa5, 0x01, 0xbe,
  0xf8, 0xaa, 0x14, 0xbe, 0xaa, 0x83, 0x90, 0xbe, 0xc6, 0x6d, 0x4d, 0x3b,
  0xaf, 0x1f, 0x37, 0xbe, 0xe7, 0x58, 0xa9, 0x3d, 0x9e, 0x33, 0xa2, 0xbe,
  0x63, 0x49, 0x14, 0xbe, 0x17, 0x84, 0x6a, 0x3e, 0xf2, 0xf9, 0xbc, 0x3d,
  0x28, 0x75, 0xb9, 0x3d, 0x67, 0x8e, 0xad, 0xbe, 0xc3, 0x4a, 0xa3, 0x3c,
  0x05, 0xd3, 0x8a, 0x3e, 0x4e, 0xcf, 0xb7, 0xbe, 0xf9, 0xdc, 0x3e, 0xbe,
  0xab, 0x57, 0x1d, 0x3e, 0xb6, 0xc6, 0x88, 0x3d, 0x5d, 0x37, 0x57, 0x3e,
  0xf9, 0xcd, 0x27, 0x3e, 0x5b, 0xa4, 0x11, 0x3e, 0x56, 0x4e, 0x9e, 0xbe,
  0x57, 0xe3, 0xd0, 0xbe, 0xc3, 0x44, 0x62, 0xbe, 0x39, 0xb8, 0x25, 0x3b,
  0x36, 0xf8, 0x35, 0xbe, 0x37, 0x39, 0x67, 0x3d, 0xc7, 0x46, 0xcb, 0x3e,
  0x41, 0x39, 0x9f, 0xbe, 0x7a, 0x1c, 0x70, 0x3e, 0xfd, 0x94, 0x5b, 0xbe,
  0x38, 0x13, 0x28, 0xbc, 0xfd, 0x5a, 0xc6, 0x3c, 0x8b, 0xec, 0xaf, 0xbc,
  0x88, 0x89, 0x34, 0xbe, 0x6d, 0x48, 0x1b, 0xbf, 0x8d, 0x2f, 0xeb, 0x3d,
  0xe7, 0x7c, 0x03, 0x3d, 0x8d, 0x7c, 0xb8, 0xbe, 0x0b, 0xa1, 0xaa, 0xbe,
  0xae, 0xac, 0xc6, 0x3e, 0xa6, 0x02, 0x06, 0x3e, 0x8e, 0x3d, 0xa6, 0x3e,
  0x00, 0xcf, 0xf6, 0xbc, 0xff, 0xdd, 0x88, 0x3e, 0xe7, 0xc7, 0x8e, 0x3e,
  0x97, 0xec, 0xb2, 0xbe, 0x48, 0x8a, 0x5d, 0xbe, 0xab, 0x05, 0xfb, 0x3d,
  0x79, 0xc7, 0x52, 0xbe, 0x34, 0x6a, 0xd7, 0x3c, 0xe7, 0x93, 0xaa, 0x3e,
  0xa0, 0x9a, 0xc9, 0xbe, 0x6a, 0xe2, 0xb1, 0xbd, 0x17, 0x6a, 0x22, 0xbe,
  0xc4, 0xd8, 0x1d, 0xbb, 0x58, 0x56, 0x9b, 0xbd, 0xdb, 0x9b, 0x5b, 0xbe,
  0x1b, 0x2d, 0xdf, 0xbe, 0xf9, 0x50, 0x14, 0xbd, 0x7d, 0x3c, 0x93, 0xbe,
  0xd2, 0xae, 0xc0, 0xbe, 0x06, 0x8e, 0x3a, 0xbd, 0x77, 0x22, 0x17, 0xbd,
  0x9d, 0x4d, 0xcd, 0xbd, 0x79, 0xed, 0x2d, 0xbd, 0x90, 0x40, 0x96, 0x3d,
  0xcf, 0xce, 0x83, 0xbd, 0x20, 0xe7, 0x6a, 0x3e, 0xee, 0x3e, 0xc6, 0x3e,
  0xa0, 0xc4, 0xf2, 0xbd, 0x43, 0x66, 0x43, 0xbe, 0x34, 0x70, 0xef, 0x3d,
  0xfa, 0xe8, 0x0f, 0xbe, 0xd3, 0x99, 0x41, 0x3e, 0x0a, 0x45, 0x35, 0x3d,
  0x93, 0x74, 0xaf, 0xbd, 0x6c, 0x20, 0x99, 0xbd, 0x52, 0xdd, 0x3b, 0xbc,
  0x21, 0x7f, 0x20, 0xbe, 0x0f, 0x72, 0xcd, 0x3d, 0xec, 0x0f, 0x66, 0xbe,
  0x8f, 0x5b, 0x5b, 0xbe, 0xa6, 0x0a, 0x42, 0x3e, 0x00, 0x96, 0x7b, 0x3d,
  0x44, 0x6e, 0xf7, 0xbb, 0x04, 0x19, 0xdb, 0x3c, 0xf5, 0xc8, 0x63, 0xbd,
  0x63, 0x01, 0x39, 0xbe, 0x73, 0x31, 0x87, 0xbe, 0x34, 0x3d, 0xb9, 0xbe,
  0xdb, 0x4d, 0xac, 0xba, 0x10, 0x47, 0xcf, 0x3d, 0x7e, 0x13, 0x0a, 0xbe,
  0xdd, 0xce, 0xeb, 0x3d, 0x39, 0xe6, 0x53, 0x3d, 0x41, 0x3b, 0xb4, 0xbd,
  0xa3, 0xd6, 0xbd, 0x3d, 0x96, 0x14, 0xd1, 0x3d, 0xb7, 0x67, 0xdb, 0x3c,
  0x15, 0x58, 0x59, 0xbe, 0x11, 0xf5, 0x8d, 0x3d, 0x6f, 0x77, 0xc0, 0xbd,
  0x35, 0xe9, 0x97, 0xbe, 0xe7, 0x14, 0xf7, 0xbc, 0xa6, 0xa2, 0xc6, 0x3d,
  0x0a, 0x9b, 0x5d, 0xbe, 0xd9, 0x0a, 0xc3, 0xbc, 0xd4, 0x5d, 0x09, 0x3d,
  0x3d, 0x3d, 0x93, 0xbe, 0xcc, 0xc3, 0x9f, 0xbe, 0x92, 0x13, 0x2c, 0xbe,
  0xcb, 0x7c, 0x35, 0x3e, 0x3d, 0x9b, 0x76, 0xbe, 0x5f, 0x63, 0x40, 0xbe,
  0x19, 0x7b, 0x47, 0xbe, 0x7a, 0x29, 0xd1, 0x3d, 0xe5, 0x3c, 0xe8, 0xbd,
  0xa3, 0xf8, 0x29, 0xbc, 0x62, 0x62, 0x22, 0xbe, 0xfe, 0xc7, 0xad, 0x3c,
  0xf4, 0x9e, 0xb8, 0xbc, 0x04, 0x4d, 0x72, 0xbc, 0xca, 0xa9, 0xc6, 0x3d,
  0x20, 0xd7, 0x03, 0xbe, 0x6b, 0x92, 0xf5, 0xbc, 0xb9, 0x3b, 0x96, 0xbe,
  0x2e, 0x3a, 0x56, 0xbd, 0xfd, 0x83, 0x9b, 0xbd, 0x4d, 0x95, 0x83, 0xbe,
  0x11, 0x81, 0xef, 0xbd, 0x50, 0x23, 0x12, 0xbe, 0x37, 0x11, 0x1c, 0x3d,
  0xef, 0x1f, 0x84, 0xbb, 0x93, 0x80, 0xe1, 0x3d, 0x25, 0xb0, 0x2e, 0xbd,
  0x24, 0x5a, 0x15, 0xbe, 0x22, 0x72, 0x50, 0xbe, 0x9b, 0x61, 0x82, 0xbc,
  0x14, 0x0c, 0x09, 0xbd, 0xe1, 0x0e, 0x8a, 0xbd, 0xae, 0x79, 0xc3, 0x3a,
  0xb4, 0x11, 0x5d, 0xbc, 0xec, 0x97, 0x30, 0x3e, 0x6e, 0xdc, 0x7e, 0xbe,
  0x5a, 0x8b, 0x8b, 0x3e, 0x8e, 0x88, 0x98, 0x3d, 0x3e, 0xa1, 0xf0, 0x3c,
  0x1d, 0x0d, 0x91, 0xbe, 0x28, 0x10, 0xd9, 0xbd, 0x3f, 0x1f, 0x81, 0x3e,
  0x17, 0x9c, 0xd5, 0x3c, 0x10, 0xb1, 0xb0, 0xbd, 0x70, 0x2f, 0x8d, 0x3e,
  0x4c, 0x26, 0xd2, 0x3e, 0xdb, 0x33, 0x0d, 0x3d, 0x93, 0x52, 0x44, 0xbe,
  0xf9, 0x16, 0xa7, 0x3d, 0xd2, 0x73, 0x9a, 0xbd, 0x95, 0x6e, 0x8e, 0xbd,
  0xaa, 0xa6, 0x4c, 0x3e, 0x10, 0x11, 0x86, 0xbc, 0x9d, 0xd6, 0x2a, 0x3e,
  0x0f, 0x2f, 0x7a, 0x3d, 0x3b, 0xb8, 0x0c, 0xbc, 0xdf, 0x4d, 0xfc, 0x3d,
  0xc2, 0x86, 0x5d, 0x3c, 0x6a, 0xc2, 0xac, 0xbd, 0x10, 0xe1, 0x8a, 0xbd,
  0x19, 0x7c, 0x84, 0x3b, 0x02, 0x63, 0x00, 0xbc, 0x07, 0x07, 0xe1, 0x3d,
  0xd3, 0x2c, 0x41, 0x3e, 0xa0, 0x02, 0xdb, 0xbd, 0x91, 0xc1, 0x25, 0x3d,
  0xe1, 0x49, 0x02, 0x3c, 0xa1, 0xe3, 0x88, 0xbe, 0x89, 0x2f, 0xfd, 0x3d,
  0x2b, 0x74, 0x4c, 0xbc, 0xdc, 0x6c, 0x5f, 0xbd, 0x5e, 0x35, 0x5a, 0xbe,
  0x11, 0xaf, 0x30, 0xbe, 0xd8, 0x09, 0x49, 0x3e, 0x8b, 0x67, 0x50, 0x3e,
  0x88, 0x73, 0xa5, 0xbe, 0xad, 0x83, 0xde, 0x3d, 0x2c, 0xde, 0x1e, 0x3d,
  0x2d, 0x77, 0x0a, 0x3e, 0x67, 0x71, 0x6a, 0xbe, 0x94, 0x80, 0xa4, 0xbd,
  0x89, 0x28, 0x89, 0x3c, 0xd5, 0xe7, 0x84, 0x3e, 0x7b, 0x93, 0x34, 0xbd,
  0x2b, 0x41, 0x48, 0xbe, 0x1a, 0x6c, 0xb9, 0xbd, 0xc5, 0x00, 0x54, 0xbe,
  0xce, 0x2b, 0x27, 0xbe, 0x9c, 0x7f, 0xbe, 0xbd, 0xa3, 0xcd, 0x30, 0xbe,
  0x08, 0x9f, 0x8c, 0xbe, 0x03, 0x5e, 0xbd, 0x3d, 0x17, 0x91, 0x00, 0xbe,
  0xbc, 0xf5, 0x48, 0x3d, 0x95, 0xee, 0x8d, 0xbe, 0x7a, 0x56, 0xf3, 0x3c,
  0x5d, 0xb6, 0x0f, 0xbd, 0xf6, 0x65, 0x6e, 0x3e, 0xa3, 0xd3, 0x75, 0x3c,
  0x07, 0xbc, 0xb5, 0xbd, 0x12, 0x8d, 0xef, 0xbd, 0x3c, 0x1c, 0xc9, 0x3d,
  0x71, 0xae, 0x3b, 0xbd, 0xa9, 0xcb, 0x19, 0x3e, 0x2f, 0x03, 0x8e, 0xbc,
  0x77, 0x16, 0x23, 0xbe, 0xa8, 0x31, 0x88, 0xbd, 0x8b, 0x28, 0xba, 0xbd,
  0x23, 0x67, 0x39, 0xbe, 0x74, 0x34, 0x92, 0xbd, 0xa0, 0x75, 0x18, 0x3e,
  0x8a, 0x7f, 0xa9, 0xbe, 0x7e, 0x2c, 0x0e, 0x3e, 0xc8, 0xae, 0x29, 0x3e,
  0x4f, 0x18, 0x37, 0xbe, 0x80, 0x8f, 0x33, 0xbe, 0x97, 0xde, 0xd0, 0xbe,
  0xf4, 0x77, 0xbd, 0xbe, 0x0b, 0x37, 0x53, 0xbd, 0x48, 0xa0, 0xe1, 0xbd,
  0x56, 0xdb, 0x5b, 0xbe, 0xe3, 0x3a, 0x0b, 0x3c, 0xe0, 0x6b, 0xc6, 0xbe,
  0x70, 0xb4, 0x57, 0xbd, 0x49, 0xd3, 0xfc, 0xbd, 0x82, 0xe5, 0x48, 0x3e,
  0x38, 0xe2, 0x67, 0xbe, 0xf3, 0x06, 0x5a, 0xbd, 0x0e, 0x7b, 0x0a, 0xbe,
  0x93, 0x42, 0x21, 0xbd, 0x46, 0x9e, 0x88, 0xbe, 0x32, 0x21, 0x0d, 0x3e,
  0x6d, 0x9f, 0x68, 0x3d, 0x44, 0x47, 0x15, 0x3e, 0x08, 0xf0, 0xba, 0xba,
  0xe2, 0xf5, 0x73, 0x3e, 0x66, 0xe9, 0xa4, 0x3e, 0xfd, 0x69, 0x83, 0xbd,
  0x4b, 0x2b, 0x7f, 0xbe, 0x0b, 0xbc, 0x87, 0x3e, 0xd5, 0x30, 0xbd, 0x3d,
  0xc0, 0x65, 0x4c, 0x3d, 0xfb, 0x6e, 0x15, 0xbe, 0x1b, 0x45, 0x9b, 0x3e,
  0xc6, 0xd6, 0x80, 0xbe, 0x77, 0xfb, 0x42, 0xbe, 0xbe, 0x68, 0x10, 0xbe,
  0x74, 0xf0, 0x8d, 0x3d, 0x4d, 0x41, 0xe1, 0x3d, 0x07, 0xb2, 0xad, 0x3e,
  0xa7, 0xa1, 0xad, 0xbe, 0x53, 0xa7, 0xba, 0x3d, 0x40, 0x01, 0x96, 0xbd,
  0xcc, 0xf1, 0x35, 0xbe, 0x55, 0x0b, 0xed, 0xbc, 0xac, 0xc3, 0x07, 0xbd,
  0xe0, 0x45, 0xf4, 0x3d, 0xbc, 0x41, 0x0f, 0xbe, 0x57, 0x69, 0x6e, 0xbe,
  0xab, 0xcc, 0x05, 0xbe, 0xef, 0xf2, 0xcb, 0x3c, 0xee, 0x4c, 0x28, 0xbd,
  0xdc, 0xf9, 0x8e, 0xbd, 0xc3, 0xf9, 0xcc, 0x3d, 0xc7, 0xe7, 0xff, 0xbd,
  0x9d, 0xa2, 0x75, 0x3e, 0x15, 0x53, 0x5e, 0xbe, 0xe0, 0xe1, 0xd2, 0xbd,
  0x49, 0x26, 0x47, 0xbe, 0x66, 0x7b, 0xca, 0x3d, 0x71, 0x36, 0x62, 0xbe,
  0x7c, 0x57, 0xc4, 0x3d, 0xa8, 0x02, 0xdd, 0xbd, 0xf9, 0xb6, 0x0f, 0x3e,
  0xf9, 0x2f, 0x5a, 0x3e, 0x9f, 0xd3, 0x8b, 0xbe, 0xc0, 0xac, 0x6a, 0xbe,
  0xdd, 0x6a, 0x64, 0x3a, 0x65, 0xc0, 0x47, 0x3e, 0x72, 0xb6, 0x25, 0xbe,
  0xcc, 0x2e, 0x5a, 0xbe, 0xcb, 0xd2, 0x5f, 0x3c, 0x8d, 0xdf, 0x7f, 0xbd,
  0x2b, 0xc0, 0xcd, 0x3d, 0xc3, 0xde, 0xc8, 0xbd, 0x24, 0x23, 0x2f, 0x3d,
  0xd3, 0x64, 0x4c, 0xbe, 0xfb, 0xcf, 0x59, 0x3d, 0x63, 0x1b, 0x72, 0xbd,
  0x7d, 0x67, 0x90, 0xbd, 0xeb, 0xad, 0x98, 0xbe, 0x24, 0xc6, 0x3c, 0xbd,
  0x5d, 0x07, 0x24, 0xbe, 0x89, 0x11, 0x05, 0xbe, 0xdb, 0xde, 0x2c, 0xbe,
  0x91, 0x1a, 0xc3, 0xbd, 0x61, 0x18, 0x72, 0xbe, 0x72, 0xf7, 0x75, 0xbe,
  0xfb, 0xda, 0x65, 0xbe, 0xf4, 0x18, 0x3c, 0xbd, 0xba, 0xcc, 0x32, 0x3e,
  0x6e, 0x96, 0x7c, 0x3d, 0x4f, 0x39, 0xa7, 0x3c, 0x89, 0x1f, 0xcb, 0xbd,
  0x27, 0x03, 0xbb, 0xbc, 0x61, 0x24, 0x21, 0xbe, 0x5c, 0x25, 0x44, 0xbe,
  0xc2, 0xfb, 0x1b, 0xbd, 0x8c, 0x44, 0x8c, 0xbe, 0xa0, 0x66, 0x53, 0x3e,
  0xbf, 0x31, 0xf4, 0xbd, 0x26, 0xde, 0xff, 0xff, 0x10, 0x00, 0x00, 0x00,
  0x0a, 0x00, 0x00, 0x00, 0x1c, 0x00, 0x00, 0x00, 0x38, 0x00, 0x00, 0x00,
  0x04, 0x00, 0x00, 0x00, 0x10, 0x00, 0x00, 0x00, 0x04, 0x00, 0x00, 0x00,
  0x01, 0x00, 0x00, 0x00, 0x08, 0x00, 0x00, 0x00, 0x1a, 0x00, 0x00, 0x00,
  0x73, 0x65, 0x71, 0x75, 0x65, 0x6e, 0x74, 0x69, 0x61, 0x6c, 0x2f, 0x63,
  0x6f, 0x6e, 0x76, 0x32, 0x64, 0x5f, 0x31, 0x2f, 0x43, 0x6f, 0x6e, 0x76,
  0x32, 0x44, 0x00, 0x00, 0x9c, 0xdd, 0xff, 0xff, 0xa6, 0xde, 0xff, 0xff,
  0x04, 0x00, 0x00, 0x00, 0x80, 0x01, 0x00, 0x00, 0x4c, 0x10, 0x0e, 0x3f,
  0x29, 0xda, 0x8a, 0x3d, 0xd5, 0x83, 0x3f, 0xbe, 0xd2, 0xce, 0xa2, 0x3e,
  0xaf, 0x35, 0x4c, 0x3e, 0x8a, 0xaa, 0x3c, 0x3c, 0x60, 0x48, 0x45, 0x3e,
  0x44, 0xb3, 0xf1, 0x3d, 0x71, 0xcf, 0xf8, 0x3c, 0x92, 0x5d, 0x1c, 0x3b,
  0xb8, 0x1b, 0x90, 0x3e, 0x1e, 0x88, 0x1a, 0x3e, 0xdc, 0x3a, 0x30, 0xbe,
  0xd1, 0xa6, 0x74, 0x3e, 0x5c, 0xc0, 0x3a, 0x3d, 0xff, 0x87, 0x98, 0xbd,
  0x2d, 0x95, 0x63, 0x3e, 0x4d, 0x92, 0xa6, 0x3d, 0x8f, 0x27, 0x2b, 0x3e,
  0x79, 0x9c, 0xe0, 0x3d, 0xc8, 0xf7, 0x70, 0x3e, 0x3a, 0xff, 0x82, 0x3e,
  0x10, 0x1a, 0x2d, 0x3d, 0xe0, 0x0a, 0x19, 0x3e, 0x79, 0xda, 0xb9, 0x3d,
  0xaf, 0x1e, 0x8e, 0x3e, 0x64, 0x68, 0x4d, 0x3e, 0x87, 0x5b, 0x95, 0xbd,
  0xd7, 0x30, 0x9d, 0x3e, 0x12, 0x22, 0x8c, 0x3e, 0x7d, 0x71, 0x6f, 0xbb,
  0x4e, 0x40, 0x36, 0x3d, 0x07, 0x73, 0xb5, 0x3e, 0xec, 0xb9, 0x64, 0x3e,
  0x62, 0xf1, 0x33, 0xbe, 0x8b, 0xb4, 0x63, 0xbe, 0x42, 0x48, 0xa5, 0xbc,
  0x60, 0x1c, 0x15, 0xbe, 0xe4, 0x37, 0x06, 0x3f, 0x15, 0x0b, 0xf6, 0xbd,
  0x2f, 0x64, 0x4c, 0xbd, 0x6d, 0xd6, 0xe5, 0x3c, 0xc9, 0xfd, 0x2f, 0x3e,
  0x80, 0x75, 0xb3, 0xbd, 0x44, 0x2c, 0xf7, 0xbe, 0x5d, 0x16, 0xa9, 0xbc,
  0x94, 0x72, 0x7a, 0xbc, 0xdf, 0xbe, 0xa0, 0xbb, 0x09, 0x2b, 0x03, 0x3e,
  0x36, 0x69, 0x4f, 0xbe, 0xfc, 0x37, 0x69, 0xba, 0x44, 0x08, 0xbe, 0x3e,
  0x77, 0x95, 0xb2, 0x3e, 0x51, 0x5d, 0x24, 0xbe, 0x11, 0x98, 0xd1, 0x3e,
  0x8e, 0xd2, 0xa3, 0x3e, 0x7f, 0xed, 0x50, 0x3e, 0x7c, 0x32, 0x86, 0x3d,
  0x69, 0xb4, 0xdc, 0xbd, 0xdc, 0x6f, 0x13, 0xbe, 0x10, 0xc2, 0xff, 0x3e,
  0xff, 0x4d, 0x12, 0x3e, 0x6b, 0x9d, 0x89, 0xbd, 0xde, 0x75, 0xf0, 0x3e,
  0x06, 0xb1, 0x8e, 0x3e, 0x72, 0xbd, 0x6d, 0x3e, 0x0a, 0xf3, 0x38, 0xbc,
  0xbc, 0x17, 0xbd, 0x3e, 0xf3, 0x92, 0xf3, 0x3d, 0x6d, 0x0b, 0x83, 0xbe,
  0x97, 0xe6, 0x4a, 0x3d, 0x3d, 0xf2, 0x18, 0x3c, 0x5d, 0x13, 0x4e, 0x3d,
  0x92, 0x59, 0xa9, 0xbe, 0x75, 0x90, 0x93, 0x3d, 0x56, 0xc6, 0x6f, 0xbe,
  0xdb, 0xaa, 0x3e, 0x3e, 0xe0, 0xb2, 0xa7, 0x3d, 0x5a, 0xd6, 0xb3, 0xbc,
  0x3b, 0xe0, 0xbc, 0xbc, 0xcb, 0xdc, 0xec, 0xbc, 0x74, 0x32, 0xd3, 0xbd,
  0x05, 0x4b, 0x32, 0x3e, 0xd0, 0x61, 0x3a, 0xbe, 0x47, 0x79, 0x46, 0xbe,
  0xf4, 0xf1, 0x04, 0x3e, 0x50, 0x54, 0x85, 0x3d, 0x28, 0xe7, 0xd1, 0xbd,
  0xae, 0xbb, 0x80, 0xbe, 0x97, 0xc9, 0x8a, 0x3e, 0x59, 0xe3, 0xcb, 0x3c,
  0xfd, 0x4d, 0x37, 0x3d, 0xab, 0xb1, 0xc0, 0xbd, 0x38, 0xf4, 0x2c, 0x3d,
  0xe9, 0xab, 0x2b, 0xbe, 0x26, 0xfb, 0x8f, 0x3e, 0xfe, 0xdf, 0xff, 0xff,
  0x10, 0x00, 0x00, 0x00, 0x09, 0x00, 0x00, 0x00, 0x1c, 0x00, 0x00, 0x00,
  0x38, 0x00, 0x00, 0x00, 0x04, 0x00, 0x00, 0x00, 0x08, 0x00, 0x00, 0x00,
  0x04, 0x00, 0x00, 0x00, 0x03, 0x00, 0x00, 0x00, 0x01, 0x00, 0x00, 0x00,
  0x18, 0x00, 0x00, 0x00, 0x73, 0x65, 0x71, 0x75, 0x65, 0x6e, 0x74, 0x69,
  0x61, 0x6c, 0x2f, 0x63, 0x6f, 0x6e, 0x76, 0x32, 0x64, 0x2f, 0x43, 0x6f,
  0x6e, 0x76, 0x32, 0x44, 0x00, 0x00, 0x00, 0x00, 0x74, 0xdf, 0xff, 0xff,
  0x7e, 0xe0, 0xff, 0xff, 0x04, 0x00, 0x00, 0x00, 0xc0, 0x00, 0x00, 0x00,
  0xa1, 0x59, 0xa4, 0xbe, 0x77, 0x8a, 0x83, 0xbe, 0x99, 0x31, 0x5f, 0xbd,
  0x5e, 0x78, 0xa4, 0x3e, 0x0d, 0x76, 0xbb, 0x3e, 0x17, 0x7c, 0x09, 0x3e,
  0x77, 0xec, 0x7f, 0x3d, 0x90, 0x5d, 0xbe, 0x3e, 0x69, 0x30, 0xe6, 0x3d,
  0x5b, 0xb0, 0x4c, 0xbe, 0x9e, 0x23, 0x6c, 0x3b, 0x85, 0x5c, 0x82, 0xbe,
  0x19, 0x30, 0x85, 0xbe, 0xd9, 0x9f, 0x6b, 0x3c, 0xdb, 0x64, 0x09, 0x3e,
  0x5b, 0xde, 0x8f, 0xbe, 0x69, 0xb4, 0xcc, 0xbe, 0x14, 0xee, 0xa0, 0x3e,
  0x15, 0xcb, 0x94, 0xbd, 0x47, 0xcd, 0x89, 0x3e, 0x2e, 0xb7, 0xcf, 0x3e,
  0xdf, 0xa4, 0xd3, 0x3d, 0x58, 0xb1, 0xc7, 0x3d, 0x4d, 0xb8, 0xcb, 0xbe,
  0x9d, 0xc7, 0xd2, 0x3e, 0x7d, 0x71, 0x94, 0xbe, 0x10, 0x31, 0xc8, 0x3d,
  0xde, 0xaa, 0x91, 0xbe, 0x4c, 0x2a, 0x40, 0xbe, 0xfd, 0x30, 0x32, 0xbd,
  0x13, 0x02, 0x46, 0x3e, 0xb0, 0x3e, 0x5d, 0xbe, 0x1a, 0xc2, 0x82, 0xbe,
  0x23, 0xf4, 0xa7, 0xbe, 0x67, 0xae, 0x34, 0xbe, 0x76, 0xdf, 0x49, 0xbf,
  0x30, 0x91, 0x97, 0xbe, 0x7c, 0x88, 0x1c, 0xbf, 0x7c, 0x89, 0x4e, 0xbf,
  0x9c, 0x58, 0xdb, 0xbd, 0x72, 0x3e, 0x54, 0x3e, 0xe7, 0x05, 0xdd, 0x3e,
  0x27, 0x0a, 0x91, 0x3c, 0x1f, 0x94, 0x8c, 0xbf, 0x7d, 0x92, 0x5a, 0xbf,
  0x41, 0x30, 0x41, 0xbf, 0xa1, 0xeb, 0xc2, 0xbe, 0xae, 0x16, 0xff, 0xbe,
  0x16, 0xe1, 0xff, 0xff, 0x10, 0x00, 0x00, 0x00, 0x08, 0x00, 0x00, 0x00,
  0x14, 0x00, 0x00, 0x00, 0x30, 0x00, 0x00, 0x00, 0x02, 0x00, 0x00, 0x00,
  0x03, 0x00, 0x00, 0x00, 0x10, 0x00, 0x00, 0x00, 0x19, 0x00, 0x00, 0x00,
  0x73, 0x65, 0x71, 0x75, 0x65, 0x6e, 0x74, 0x69, 0x61, 0x6c, 0x2f, 0x64,
  0x65, 0x6e, 0x73, 0x65, 0x5f, 0x31, 0x2f, 0x4d, 0x61, 0x74, 0x4d, 0x75,
  0x6c, 0x00, 0x00, 0x00, 0x84, 0xe0, 0xff, 0xff, 0x8e, 0xe1, 0xff, 0xff,
  0x04, 0x00, 0x00, 0x00, 0x00, 0x1c, 0x00, 0x00, 0xf8, 0x6c, 0xb9, 0x3c,
  0xba, 0x30, 0x47, 0xbe, 0xa4, 0x8e, 0x59, 0x3e, 0xe6, 0x0b, 0xf5, 0xbd,
  0x53, 0xf3, 0x0f, 0xbd, 0x8a, 0x19, 0x0a, 0x3e, 0x55, 0xc1, 0x01, 0xbe,
  0x32, 0x6b, 0xc7, 0xbd, 0x8a, 0x62, 0xa3, 0xbe, 0x0d, 0x9a, 0x80, 0x3d,
  0xde, 0x4e, 0x32, 0xbc, 0x5d, 0x01, 0x35, 0xbe, 0xc1, 0x66, 0x58, 0xbc,
  0xc0, 0x18, 0x5b, 0xbc, 0xf7, 0xee, 0x1e, 0x3b, 0xf7, 0x0f, 0xdf, 0x3f,
  0x65, 0xf7, 0xee, 0xbb, 0xfd, 0xf6, 0x41, 0xbd, 0x2d, 0x21, 0xe6, 0x3d,
  0x69, 0xcb, 0x9c, 0x3d, 0xc9, 0xca, 0xfa, 0xbc, 0xb2, 0xb5, 0x82, 0x3d,
  0xc4, 0xed, 0xf0, 0x3b, 0x26, 0xd5, 0x2f, 0xbe, 0x48, 0xad, 0x62, 0xbe,
  0x23, 0x34, 0x5f, 0xbe, 0xff, 0x7d, 0x48, 0x3d, 0xbf, 0x24, 0x3c, 0xbe,
  0x51, 0xa7, 0x35, 0xbd, 0xe0, 0xc7, 0x31, 0x3e, 0xc6, 0xe9, 0x2c, 0x3d,
  0x79, 0x22, 0x05, 0x40, 0xc6, 0x68, 0x48, 0xbd, 0x60, 0x7d, 0x3a, 0x3e,
  0xb5, 0xf9, 0x2d, 0x3e, 0x4d, 0x37, 0xca, 0x3d, 0x88, 0xa5, 0x3a, 0xbc,
  0xc3, 0x4f, 0x1e, 0xbd, 0x46, 0x86, 0xa8, 0x3d, 0xdc, 0x47, 0x52, 0x3d,
  0x4a, 0x18, 0x3c, 0xbe, 0xd3, 0x35, 0x24, 0x3e, 0xc6, 0xf5, 0x71, 0x3e,
  0xfa, 0xa4, 0x87, 0xbe, 0xa3, 0x73, 0x5f, 0xbe, 0x40, 0xb6, 0x47, 0x3c,
  0x99, 0xf2, 0x8d, 0x3c, 0x7d, 0xde, 0xd6, 0x3f, 0x13, 0xba, 0xa6, 0xbd,
  0x5a, 0x3a, 0x2d, 0x3e, 0x52, 0x03, 0x4c, 0xbe, 0x68, 0x77, 0x3f, 0x3e,
  0xc1, 0x4a, 0x13, 0xbd, 0x26, 0x8d, 0x23, 0xbc, 0x09, 0x3f, 0x3b, 0xbe,
  0xb8, 0xba, 0xdd, 0xbd, 0xc2, 0x84, 0x61, 0xbe, 0xe8, 0x25, 0xbe, 0xbd,
  0x1f, 0x1d, 0x00, 0xbe, 0xaf, 0x9c, 0x92, 0xbe, 0x49, 0x6a, 0x80, 0xbd,
  0x0d, 0xc8, 0x15, 0x3e, 0x0d, 0xa8, 0x1e, 0x3e, 0xae, 0x32, 0xdc, 0x3f,
  0x72, 0x60, 0xce, 0xbd, 0xd1, 0x22, 0x97, 0x3d, 0x20, 0xfd, 0xbe, 0xbd,
  0x5e, 0x71, 0xd5, 0x3c, 0x69, 0xaf, 0x80, 0x3c, 0xe8, 0x97, 0x69, 0xbe,
  0x66, 0x33, 0x8e, 0xbe, 0x0d, 0x29, 0x40, 0x3d, 0xb7, 0xa6, 0x53, 0xbe,
  0xdf, 0x58, 0xdc, 0xbd, 0x7b, 0x02, 0xc3, 0x3d, 0x32, 0xac, 0xc4, 0x3c,
  0x92, 0x18, 0xd1, 0x3d, 0x84, 0xda, 0x75, 0xbe, 0xec, 0x66, 0x6c, 0xbd,
  0xae, 0x9e, 0xf7, 0x3f, 0xa7, 0xc0, 0x45, 0xbe, 0x47, 0x97, 0xc1, 0x3d,
  0xd6, 0xb8, 0x65, 0xbe, 0x15, 0x8e, 0xf8, 0xbd, 0x67, 0x52, 0xe0, 0x3c,
  0x29, 0xc9, 0x31, 0xbe, 0x33, 0x35, 0xf6, 0xbd, 0xf7, 0xfa, 0x38, 0x3d,
  0x26, 0x36, 0x41, 0x3d, 0x19, 0xb6, 0x4a, 0xbe, 0xc3, 0x2c, 0xda, 0xbb,
  0x81, 0x62, 0x6f, 0xbe, 0x1f, 0x2d, 0x15, 0xbd, 0xf4, 0xf2, 0xd6, 0xbd,
  0xcd, 0xf0, 0xe3, 0xbc, 0xdf, 0x43, 0xdc, 0x3f, 0xf2, 0xc8, 0x83, 0x3d,
  0x7f, 0xda, 0xfd, 0xbb, 0x3c, 0x36, 0xf6, 0x3d, 0x02, 0xbc, 0xdd, 0xbd,
  0x69, 0xc7, 0xc0, 0x3d, 0x57, 0x45, 0xaa, 0xbd, 0xef, 0xc3, 0x3c, 0x3b,
  0x1f, 0x93, 0x76, 0xbd, 0x85, 0x96, 0x3a, 0xbe, 0x86, 0x16, 0xee, 0x3d,
  0xba, 0x12, 0x35, 0x3d, 0x13, 0x80, 0x11, 0xbd, 0x85, 0x46, 0xbf, 0xbd,
  0xbb, 0x4d, 0x03, 0xbe, 0x56, 0x19, 0xad, 0x3c, 0x8c, 0x08, 0xd9, 0x3f,
  0x50, 0xe1, 0xb1, 0xbd, 0x01, 0x62, 0x8f, 0xbd, 0x06, 0xda, 0x7f, 0x3d,
  0xe7, 0x96, 0x37, 0xbe, 0xa7, 0xc3, 0x1d, 0x3e, 0x6e, 0x45, 0x9a, 0xbd,
  0x84, 0x99, 0xa1, 0x3c, 0x22, 0xf8, 0x8c, 0xbd, 0x94, 0xe9, 0x9b, 0x3d,
  0x5e, 0xd1, 0xdb, 0xbd, 0xdb, 0xd3, 0x00, 0xbc, 0xc2, 0xb8, 0x04, 0xbe,
  0x07, 0x8d, 0x2c, 0x3d, 0x3e, 0xfd, 0x8c, 0xbd, 0xfc, 0x03, 0xf2, 0xbc,
  0xd5, 0xf0, 0x4d, 0x3d, 0xab, 0x57, 0x6b, 0x3d, 0x7d, 0x51, 0x97, 0xbd,
  0x67, 0xfb, 0xa9, 0xbd, 0x0f, 0x0e, 0xd2, 0x3d, 0x31, 0xc7, 0xc0, 0xbc,
  0xb5, 0x20, 0x3c, 0x3e, 0x3c, 0xda, 0x40, 0xbe, 0x7d, 0x31, 0x0c, 0xbd,
  0x45, 0x6c, 0xf8, 0xbd, 0x6b, 0xc1, 0x3b, 0x3e, 0xc5, 0xc4, 0x4d, 0x3c,
  0x22, 0xa0, 0x32, 0xbd, 0xa1, 0x4c, 0x5d, 0x3e, 0x87, 0xd3, 0x38, 0x3e,
  0xf5, 0x55, 0xa7, 0x3d, 0x78, 0x27, 0xce, 0xbd, 0xb8, 0x43, 0x5c, 0xbe,
  0x6c, 0x3c, 0xc2, 0x3d, 0x28, 0x7b, 0x1c, 0xbd, 0x7b, 0xf0, 0xae, 0xbd,
  0x0f, 0x7a, 0x95, 0x3d, 0x45, 0x03, 0xdf, 0x3d, 0xa7, 0x9a, 0x60, 0x3d,
  0x22, 0xd9, 0x24, 0xbe, 0x32, 0x02, 0x85, 0x3d, 0x73, 0x75, 0x27, 0xbd,
  0x94, 0x9e, 0x01, 0x3e, 0x40, 0xbd, 0x3a, 0xbe, 0xc0, 0x30, 0x66, 0x3c,
  0x5f, 0x28, 0x57, 0xbe, 0x40, 0x41, 0x2e, 0xbe, 0xe4, 0x54, 0x3f, 0xbd,
  0xd8, 0x42, 0x79, 0xbd, 0x8b, 0x52, 0x3c, 0xbe, 0x46, 0x70, 0x13, 0xbe,
  0xc8, 0x08, 0x23, 0x3c, 0xdd, 0xda, 0xa2, 0xbc, 0x89, 0xb8, 0x68, 0xbe,
  0x58, 0xf4, 0xaa, 0xbd, 0x2e, 0x04, 0xed, 0x3d, 0x51, 0xb8, 0x3a, 0xbe,
  0xb9, 0x0f, 0x8c, 0xbd, 0xdf, 0xce, 0x65, 0xbe, 0xee, 0xd5, 0x1a, 0xbe,
  0x0a, 0x3c, 0x4d, 0x3e, 0x9d, 0x3c, 0x5e, 0xbc, 0x50, 0x20, 0x9b, 0x3a,
  0x84, 0x8a, 0x62, 0xbd, 0xd1, 0xdd, 0xd9, 0x3d, 0x50, 0xe8, 0x6f, 0x3d,
  0x7a, 0x64, 0xfb, 0x3d, 0x67, 0xa3, 0x1f, 0x3e, 0x26, 0xb7, 0x18, 0x3e,
  0xa3, 0x5a, 0xe8, 0xbd, 0x38, 0x95, 0xf9, 0xbd, 0x84, 0x3f, 0x17, 0xbe,
  0x9d, 0x4d, 0x33, 0xbe, 0x76, 0x82, 0xad, 0x3a, 0xe7, 0x8b, 0x3d, 0xbe,
  0x27, 0x4a, 0xe8, 0xbb, 0x4e, 0x2a, 0x53, 0x3d, 0x94, 0x7a, 0xe7, 0xbd,
  0x20, 0x6e, 0x22, 0xbe, 0xc1, 0xb8, 0x9a, 0xbd, 0xf4, 0x1b, 0xeb, 0x3d,
  0x08, 0x05, 0xe3, 0xbd, 0x4f, 0xf2, 0x59, 0x3e, 0xba, 0x01, 0x1a, 0xbe,
  0x53, 0x9c, 0x34, 0x3d, 0xcf, 0x37, 0x06, 0x3d, 0xa8, 0xb7, 0x28, 0xbe,
  0xb6, 0x08, 0xad, 0xbd, 0x57, 0x8a, 0x30, 0xbe, 0x31, 0x67, 0xa6, 0x3d,
  0x49, 0x70, 0x85, 0xbc, 0x4f, 0x30, 0x5c, 0xbe, 0x72, 0x97, 0x95, 0xbc,
  0xc4, 0x3c, 0x9a, 0x3d, 0x27, 0x56, 0xf1, 0xbd, 0xf1, 0x19, 0xa3, 0xbd,
  0xdd, 0x67, 0x38, 0xbe, 0x9f, 0xc7, 0xb0, 0xbc, 0x15, 0x83, 0x34, 0x3e,
  0x2a, 0xcc, 0xea, 0xbd, 0xbe, 0xe1, 0xdf, 0x3d, 0x65, 0x05, 0x22, 0xbe,
  0x60, 0x1c, 0x79, 0xbd, 0xc1, 0x3c, 0x47, 0x3b, 0x20, 0xcb, 0x73, 0xbe,
  0xf9, 0x49, 0xd8, 0xbd, 0xdd, 0x1c, 0x2f, 0xbe, 0x48, 0x6a, 0x80, 0xbe,
  0x88, 0x78, 0x3a, 0x3d, 0x6b, 0x36, 0x03, 0x3e, 0x61, 0x43, 0x31, 0x3e,
  0x41, 0x5a, 0xbe, 0x3d, 0x11, 0x0e, 0xc7, 0x3d, 0xa5, 0xd4, 0x80, 0x3e,
  0x71, 0x2e, 0xae, 0x3e, 0x1e, 0x56, 0x24, 0xbe, 0xa0, 0x65, 0x14, 0xbe,
  0x8b, 0x44, 0x0b, 0x3d, 0xd3, 0xf7, 0x1d, 0xbe, 0xe9, 0x01, 0x39, 0x3c,
  0xc8, 0xb3, 0x8c, 0xbe, 0x8c, 0xc4, 0x43, 0xbc, 0x65, 0x0e, 0xf2, 0x3d,
  0xd8, 0x38, 0x8e, 0x3c, 0xe1, 0xdc, 0xfc, 0x3c, 0x4b, 0x25, 0x0e, 0xbe,
  0x22, 0x80, 0x1a, 0x3e, 0x94, 0x3e, 0xda, 0x3e, 0x2a, 0x3f, 0x43, 0xbd,
  0xdd, 0x99, 0xb9, 0xbc, 0x3e, 0x98, 0x96, 0x3c, 0x37, 0xa1, 0x55, 0x3b,
  0xf5, 0x12, 0x04, 0x3e, 0xb2, 0xd9, 0x1f, 0x3d, 0x02, 0x5c, 0xa2, 0xbd,
  0xdd, 0x32, 0xea, 0xbc, 0x27, 0x4f, 0x90, 0xbd, 0x9c, 0xc2, 0xee, 0xbd,
  0xc2, 0x10, 0x31, 0xbd, 0xe8, 0x40, 0x2f, 0xbd, 0x8c, 0xc6, 0x80, 0x3d,
  0xaf, 0x51, 0x4b, 0x3e, 0x61, 0x2d, 0xef, 0xbd, 0xc6, 0x73, 0x02, 0x40,
  0xd4, 0xb1, 0x63, 0x3d, 0xcb, 0xa8, 0x8f, 0xbe, 0x7b, 0x02, 0x1a, 0xbe,
  0xad, 0xfd, 0x97, 0xbc, 0xc3, 0x6a, 0x8b, 0xbd, 0x56, 0x05, 0xad, 0x3e,
  0xa6, 0xe5, 0xec, 0x3e, 0xc3, 0x33, 0x4b, 0x3e, 0xa3, 0x59, 0x41, 0x3e,
  0xf6, 0xc4, 0x0c, 0xbe, 0x7f, 0x97, 0xe2, 0xbc, 0x69, 0x4c, 0x91, 0xbc,
  0x6f, 0xe0, 0xac, 0x3d, 0x6e, 0x58, 0x86, 0x3e, 0x2b, 0x29, 0x09, 0x3d,
  0x68, 0x6a, 0xc0, 0x3f, 0x2d, 0x48, 0x5e, 0xbc, 0x27, 0x19, 0xc0, 0xbd,
  0x70, 0xa4, 0x68, 0x3d, 0xd0, 0x8d, 0x11, 0x3e, 0xa2, 0xf1, 0x6b, 0x3d,
  0x31, 0xba, 0x1e, 0x3e, 0x86, 0x0e, 0x7f, 0x3e, 0xd7, 0x93, 0x7b, 0xbd,
  0xf4, 0x52, 0xd9, 0xbb, 0xa0, 0x25, 0xf9, 0x3c, 0x5c, 0x3f, 0x3d, 0xbd,
  0x27, 0xdd, 0x60, 0x3d, 0x59, 0xea, 0xec, 0x3d, 0xc1, 0x48, 0x36, 0xbd,
  0x68, 0xd2, 0x29, 0xbd, 0x56, 0xdd, 0xf4, 0x3f, 0x47, 0xe1, 0x0e, 0xbe,
  0x59, 0x59, 0x86, 0x3e, 0x7b, 0x24, 0x5e, 0x3d, 0xaa, 0xd2, 0x84, 0xbe,
  0xae, 0xb3, 0x84, 0x3c, 0xea, 0xfc, 0xe2, 0x3c, 0x9a, 0x4e, 0xd8, 0xbd,
  0x00, 0xf5, 0x89, 0x3e, 0xd7, 0x77, 0xef, 0xbc, 0x92, 0x79, 0xf4, 0xbc,
  0xd5, 0x50, 0xd7, 0xbd, 0xc2, 0x1a, 0x82, 0xbe, 0x11, 0x46, 0x26, 0xbe,
  0x23, 0xa2, 0x42, 0xbe, 0x69, 0x54, 0x23, 0x3e, 0xe0, 0x80, 0xd6, 0x3f,
  0xf2, 0xe0, 0x7a, 0x3a, 0x48, 0xc2, 0x33, 0x3e, 0x64, 0x39, 0xae, 0x3d,
  0x6c, 0x01, 0x66, 0xbe, 0xc4, 0x0e, 0x1b, 0x3d, 0x0e, 0x06, 0x0e, 0x3d,
  0x2c, 0x1d, 0x57, 0xbe, 0xf7, 0xde, 0x1c, 0xbe, 0x76, 0xf4, 0x12, 0xbe,
  0xb8, 0xa7, 0x2f, 0x3e, 0x35, 0xec, 0x7a, 0x3e, 0x4a, 0x6a, 0xc5, 0x3d,
  0xb7, 0xb1, 0x70, 0xbd, 0xee, 0x74, 0xed, 0xbd, 0x00, 0x8c, 0x03, 0x3e,
  0x88, 0x0f, 0xd0, 0x3f, 0x8c, 0x34, 0x89, 0x3d, 0x8d, 0x81, 0xee, 0xbc,
  0x22, 0x1a, 0x1b, 0x3e, 0x54, 0x1e, 0xf0, 0xbd, 0x69, 0x05, 0x19, 0x3e,
  0xf5, 0x67, 0xc5, 0xbd, 0x61, 0xa3, 0xe6, 0x3b, 0x36, 0x41, 0xc0, 0xbd,
  0x12, 0xb7, 0xe1, 0xbb, 0x5e, 0x4e, 0xa2, 0xbd, 0x30, 0x1b, 0x12, 0xbd,
  0x89, 0x11, 0x58, 0xbe, 0x3b, 0xf7, 0x0a, 0x3e, 0x05, 0xf1, 0x7d, 0xbe,
  0x2d, 0x7e, 0xdc, 0xbd, 0xd8, 0x5a, 0x8d, 0x3f, 0x43, 0x15, 0xfb, 0x3d,
  0x0c, 0x79, 0x9d, 0x3e, 0x96, 0x49, 0xa4, 0x3e, 0x3f, 0x87, 0xb6, 0xbe,
  0x17, 0x4c, 0x29, 0xbe, 0x9d, 0x4b, 0xf0, 0xbe, 0x53, 0xb5, 0xe8, 0xbe,
  0xaf, 0x24, 0x05, 0xbf, 0x1c, 0x70, 0xbd, 0xbe, 0x6a, 0x87, 0x9d, 0xbe,
  0x83, 0xb9, 0x6f, 0x3e, 0x32, 0xfd, 0x27, 0xbe, 0x7f, 0x26, 0x48, 0x3e,
  0x7c, 0xc6, 0x82, 0xbe, 0x22, 0x1b, 0x04, 0x3d, 0x15, 0xfd, 0x83, 0x3f,
  0xe8, 0xe9, 0xb4, 0xbd, 0x93, 0x20, 0x6c, 0x3e, 0x52, 0x7b, 0xd5, 0x3e,
  0xe7, 0xd2, 0xe6, 0xbd, 0xa3, 0x30, 0x81, 0x3d, 0xe6, 0x16, 0x38, 0x3d,
  0x5e, 0xf4, 0x73, 0xbd, 0x8d, 0xdc, 0x9c, 0xbd, 0x15, 0x0e, 0xc2, 0xbd,
  0x1d, 0xa1, 0x58, 0xbe, 0xcf, 0xdb, 0x09, 0x3d, 0x97, 0x48, 0x9e, 0xbd,
  0xea, 0x3a, 0x4e, 0xbe, 0xf0, 0x90, 0x4e, 0x3e, 0xaa, 0xf4, 0xad, 0x3d,
  0x23, 0x86, 0x9f, 0x3f, 0x56, 0x03, 0x4d, 0x3e, 0xeb, 0x8c, 0x81, 0x3d,
  0xdd, 0x4e, 0x0a, 0x3f, 0x39, 0xda, 0x67, 0x3e, 0x7d, 0x22, 0xa2, 0x3e,
  0xd0, 0x0c, 0xee, 0x3e, 0x31, 0xd0, 0x48, 0x3e, 0x1a, 0xf1, 0x8e, 0x3d,
  0x60, 0x0c, 0x17, 0xbe, 0x1b, 0x5c, 0xe2, 0xbc, 0x24, 0x61, 0x93, 0x3d,
  0xc7, 0x44, 0xee, 0x3d, 0x2b, 0xdf, 0x4d, 0x3e, 0x39, 0x9f, 0x59, 0x3e,
  0xbd, 0xae, 0x7b, 0x3e, 0x4d, 0x0d, 0xc2, 0x3f, 0x69, 0xfd, 0xe1, 0x3d,
  0x73, 0xff, 0x6f, 0x3e, 0x31, 0x9a, 0x3b, 0x3f, 0x1a, 0x82, 0x03, 0x3f,
  0xca, 0xd9, 0x05, 0x3c, 0xcf, 0x55, 0x65, 0x3e, 0x7f, 0x79, 0x90, 0x3e,
  0xeb, 0x7a, 0xc4, 0x3e, 0x46, 0xb4, 0xcc, 0x3d, 0xa2, 0xb4, 0x36, 0xbe,
  0xc2, 0x1c, 0x7a, 0x3e, 0x82, 0x77, 0xc0, 0x3d, 0x07, 0x20, 0x97, 0x3e,
  0x48, 0x2b, 0xa1, 0x3d, 0xb8, 0xb4, 0x12, 0x3e, 0xbf, 0x34, 0xc2, 0x3f,
  0xef, 0xfd, 0x97, 0x3e, 0x2e, 0x60, 0x10, 0x3e, 0x54, 0xd3, 0x9c, 0x3e,
  0x17, 0xf8, 0x94, 0x3d, 0xfe, 0xaf, 0xd0, 0x3e, 0x60, 0x28, 0x22, 0x3e,
  0x23, 0x93, 0xc5, 0xbd, 0xc8, 0xda, 0x67, 0x3d, 0x55, 0xb8, 0xf6, 0x3b,
  0xa9, 0xcf, 0x41, 0xbe, 0x17, 0x0a, 0x29, 0x3e, 0xa0, 0xb4, 0xbe, 0x3c,
  0x18, 0x7e, 0xf8, 0xbd, 0x31, 0x03, 0xd4, 0xbc, 0x44, 0xa5, 0xa0, 0x3d,
  0x82, 0xb6, 0xd8, 0x3f, 0xe2, 0x38, 0x0e, 0x3e, 0xbe, 0x90, 0x07, 0xbe,
  0xd6, 0xf4, 0x18, 0xbe, 0xf1, 0xed, 0x5d, 0xbe, 0x49, 0x8b, 0x6c, 0xbe,
  0xbf, 0x08, 0x40, 0xbc, 0x10, 0x3c, 0x8d, 0xbc, 0x4f, 0x4f, 0xd2, 0xbd,
  0x1f, 0xd6, 0x90, 0x3a, 0xea, 0x43, 0x45, 0x39, 0xe7, 0xcc, 0x80, 0xbe,
  0x60, 0x51, 0x17, 0xbe, 0x29, 0xd1, 0xc0, 0xbd, 0x78, 0x91, 0xf9, 0x3d,
  0x24, 0x1c, 0x4b, 0x3e, 0x7a, 0x37, 0xd8, 0x3f, 0xd2, 0x87, 0x5e, 0x3e,
  0xf8, 0x2b, 0x74, 0x3e, 0xef, 0x8b, 0x0a, 0xbe, 0xe0, 0x9a, 0xc1, 0xbd,
  0xb5, 0x9a, 0xd9, 0xbd, 0xbc, 0x41, 0x15, 0xbd, 0xa8, 0x96, 0xff, 0xbd,
  0xf2, 0xe3, 0xfb, 0xbd, 0xb8, 0x9c, 0x70, 0x3d, 0xa0, 0x18, 0xa7, 0xbc,
  0x58, 0xf7, 0xbc, 0xbc, 0x27, 0x9c, 0x27, 0xbc, 0x2e, 0x29, 0x4b, 0xbe,
  0x6a, 0x6b, 0x13, 0xbe, 0xc7, 0x76, 0x1a, 0x3e, 0x20, 0x30, 0x23, 0x3f,
  0x9a, 0x91, 0xff, 0xbe, 0x35, 0xdb, 0xa8, 0xbe, 0x60, 0x8d, 0x6d, 0x3e,
  0xaf, 0xec, 0x40, 0x3e, 0x80, 0x45, 0x7d, 0x3e, 0x25, 0xc0, 0xd7, 0x3e,
  0x17, 0xb9, 0x6c, 0x3e, 0x82, 0x04, 0xa1, 0x3e, 0x19, 0x07, 0x64, 0x3e,
  0x60, 0xe8, 0x73, 0x3e, 0xa8, 0xfd, 0xd8, 0xbe, 0x5f, 0xe7, 0x0e, 0xbd,
  0x18, 0xf3, 0xf5, 0x3d, 0xc0, 0x14, 0xbe, 0x3d, 0x8e, 0x5d, 0xa0, 0x3e,
  0x98, 0xf7, 0x05, 0x3e, 0xa8, 0xc8, 0xbe, 0x3e, 0x99, 0xa5, 0x84, 0x3d,
  0x10, 0xd3, 0x48, 0x3e, 0xfb, 0xb7, 0xe6, 0x3e, 0x94, 0xbd, 0x62, 0xbe,
  0x98, 0x3d, 0x92, 0x3e, 0xd0, 0x48, 0x6b, 0x3e, 0x34, 0x02, 0x84, 0x3e,
  0x59, 0xee, 0xc5, 0xbd, 0xbb, 0x6f, 0x00, 0xbe, 0x39, 0xc2, 0xc0, 0xbd,
  0xc0, 0x6a, 0x27, 0xbe, 0x17, 0x02, 0x3f, 0x3e, 0x72, 0x85, 0x4d, 0x3e,
  0xcb, 0x79, 0x60, 0x3e, 0xbd, 0x1f, 0xb1, 0xbd, 0x1c, 0x3b, 0x67, 0x3e,
  0x07, 0x4b, 0x0e, 0x3e, 0x0e, 0x99, 0x1f, 0xbe, 0x75, 0x3b, 0x9b, 0xbc,
  0xd6, 0x29, 0x56, 0x3d, 0x36, 0x51, 0x9b, 0xbe, 0x3b, 0xff, 0xf5, 0x3c,
  0xf3, 0x55, 0xa6, 0xbe, 0x43, 0x19, 0x97, 0xbe, 0xc8, 0xa9, 0xc1, 0x3d,
  0x64, 0xb7, 0x0f, 0x3e, 0xb0, 0x76, 0x8f, 0xbd, 0x12, 0x50, 0x28, 0xbe,
  0x45, 0x85, 0x91, 0xbd, 0xf1, 0xc2, 0x97, 0xbd, 0xfe, 0x46, 0xf6, 0xbd,
  0xa1, 0xfd, 0x11, 0xbd, 0x65, 0xdd, 0xf8, 0x3a, 0x94, 0xd9, 0x8a, 0xbd,
  0x20, 0x93, 0xd6, 0xbd, 0xf2, 0xd8, 0x33, 0xbe, 0xa1, 0x08, 0x0e, 0xbc,
  0x11, 0x28, 0xdc, 0xbd, 0x76, 0x7a, 0xb6, 0xbd, 0x93, 0xbd, 0x92, 0xbe,
  0x3f, 0xe6, 0xa6, 0x3b, 0x2e, 0xa2, 0x44, 0x3d, 0x14, 0xb2, 0xe1, 0xbd,
  0xc1, 0x16, 0xff, 0x3d, 0x49, 0xd3, 0xa4, 0xbd, 0x3d, 0x25, 0x2f, 0xbe,
  0xb6, 0x85, 0x83, 0x3d, 0x1e, 0xe0, 0x63, 0x3b, 0xf4, 0xe2, 0x33, 0xbd,
  0xc3, 0xea, 0xf5, 0x3c, 0xbb, 0x2f, 0xa8, 0x3e, 0x38, 0xe1, 0xa7, 0x3e,
  0xc1, 0xe4, 0x0c, 0x3e, 0x80, 0x8b, 0x8a, 0x3e, 0xbc, 0x16, 0x42, 0x3d,
  0x9f, 0x87, 0x7e, 0xbe, 0x28, 0x1c, 0x23, 0x3d, 0x96, 0x70, 0x53, 0x3a,
  0xb3, 0x2d, 0x07, 0xbd, 0x8c, 0xef, 0xd5, 0xbd, 0x40, 0xe3, 0xcc, 0x3e,
  0xab, 0x1a, 0x28, 0x3e, 0xf9, 0x96, 0xa5, 0xbd, 0x33, 0x38, 0x1e, 0x3c,
  0x23, 0xa8, 0x7f, 0xbc, 0x7e, 0xe0, 0xa3, 0x3e, 0x74, 0x0e, 0xae, 0x3e,
  0xb1, 0x72, 0xaa, 0x3e, 0xbb, 0x90, 0x96, 0x3e, 0xfc, 0xdd, 0xa4, 0x3e,
  0x4d, 0x61, 0xe2, 0x3e, 0x91, 0x92, 0xf1, 0x3d, 0x41, 0xd6, 0x46, 0xbd,
  0xa8, 0x6d, 0x86, 0xbd, 0xb3, 0x4a, 0x39, 0x3d, 0x9c, 0x1c, 0x7d, 0x3d,
  0x9f, 0xd1, 0x06, 0x3e, 0x60, 0xac, 0x3f, 0x3e, 0x8a, 0x79, 0xa0, 0x3d,
  0xb8, 0x8b, 0xb9, 0xbb, 0x53, 0xb0, 0x28, 0xbd, 0x74, 0x51, 0x42, 0x3e,
  0xd2, 0x03, 0x23, 0x3e, 0x6d, 0xc2, 0x79, 0x3d, 0x1c, 0x44, 0xc8, 0x3e,
  0x73, 0xc3, 0x09, 0xbe, 0x7a, 0xcb, 0x9e, 0xbd, 0xa6, 0xb3, 0x38, 0xbe,
  0xb7, 0x8b, 0x8d, 0xbd, 0x5b, 0xd2, 0xa6, 0xbb, 0x30, 0xbb, 0xd8, 0xbd,
  0x1f, 0x2d, 0xa9, 0x3c, 0x47, 0xdf, 0x25, 0xbd, 0x63, 0xf1, 0x47, 0x3e,
  0x28, 0x39, 0x13, 0x3e, 0x0b, 0x9b, 0xa3, 0x3e, 0x04, 0xe6, 0x67, 0x3e,
  0x3e, 0x3b, 0x94, 0x3e, 0x05, 0xbb, 0x9e, 0xbe, 0x5a, 0x98, 0x58, 0xbe,
  0x08, 0xb4, 0xa4, 0xbe, 0x84, 0x34, 0x22, 0xbe, 0xb8, 0xed, 0x75, 0xbe,
  0x0a, 0x6c, 0x20, 0xbe, 0xe9, 0x93, 0x3d, 0x3d, 0xed, 0x3f, 0xa4, 0x3d,
  0x98, 0x41, 0xd5, 0xbc, 0xdf, 0xf9, 0x79, 0x3e, 0x0c, 0xbd, 0x92, 0xbd,
  0x17, 0xcf, 0x44, 0xbe, 0xad, 0x4d, 0x16, 0x3f, 0x6c, 0x01, 0x87, 0xbe,
  0x6f, 0x54, 0x12, 0xbe, 0x8e, 0x9e, 0x67, 0x3e, 0x52, 0xfc, 0x51, 0x3d,
  0xda, 0xf4, 0xb4, 0xbd, 0x36, 0x7d, 0xe0, 0xbb, 0x26, 0x94, 0x1b, 0xbd,
  0x28, 0x3b, 0x5b, 0xbd, 0x70, 0x9d, 0x12, 0xbe, 0x69, 0xc3, 0x07, 0xbd,
  0xef, 0x56, 0x88, 0x3d, 0xdb, 0x3b, 0xdf, 0xbd, 0x2e, 0xb7, 0x8c, 0x3e,
  0x0a, 0xac, 0x71, 0x3e, 0x02, 0xf5, 0xde, 0xbd, 0x73, 0x39, 0xe0, 0x3f,
  0x41, 0x08, 0x8e, 0xbe, 0x7a, 0x1a, 0x37, 0xbe, 0xa4, 0x5b, 0x39, 0x3e,
  0x61, 0xf3, 0x79, 0x3e, 0xab, 0xef, 0xa2, 0x3e, 0xb5, 0x20, 0xf6, 0x3e,
  0x80, 0xb9, 0xd0, 0xbd, 0xb6, 0x67, 0xc2, 0xbd, 0x71, 0xe3, 0x85, 0x3d,
  0xb1, 0x3b, 0x28, 0xbd, 0x69, 0xfa, 0x78, 0xbe, 0x12, 0x20, 0xf1, 0xbd,
  0x88, 0x83, 0xe1, 0xbc, 0x01, 0x4d, 0x5a, 0x3e, 0xb6, 0x14, 0x29, 0x3e,
  0x2f, 0x64, 0xfc, 0x3f, 0x11, 0x5b, 0x81, 0x3c, 0x56, 0x99, 0x07, 0x3e,
  0xcc, 0xf0, 0x1b, 0x3f, 0xbf, 0xa4, 0x5e, 0x3e, 0x26, 0xa5, 0xbc, 0x3e,
  0x6a, 0x63, 0xb1, 0x3e, 0xd0, 0x1e, 0x16, 0xbe, 0x61, 0xa6, 0x6f, 0x3e,
  0x2d, 0xeb, 0xe3, 0x3d, 0x8c, 0x87, 0x68, 0xbe, 0xf5, 0x40, 0x87, 0xbd,
  0xa8, 0xe0, 0x7e, 0x3d, 0x63, 0x35, 0x4f, 0x3e, 0x01, 0x2d, 0xc3, 0x3d,
  0xef, 0x94, 0xe7, 0x3d, 0x50, 0x63, 0xee, 0x3f, 0x9a, 0xba, 0xc0, 0x3d,
  0x6c, 0x31, 0xc9, 0x3e, 0xbb, 0xcf, 0xa7, 0x3d, 0x3a, 0xa4, 0x0e, 0xbe,
  0x23, 0x35, 0x46, 0x3d, 0x5b, 0xa0, 0xc4, 0x3c, 0xcf, 0x4a, 0x43, 0xbe,
  0xb4, 0xe9, 0xcf, 0xbd, 0xa0, 0xa7, 0x18, 0xbe, 0x46, 0x94, 0x09, 0xbc,
  0xe8, 0xb9, 0x1a, 0x3e, 0x46, 0x4b, 0xe3, 0x3d, 0x58, 0xef, 0x40, 0x3e,
  0xbb, 0xa9, 0xb8, 0xbe, 0xa6, 0xd6, 0x1e, 0x3e, 0xc1, 0xc5, 0xf9, 0x3f,
  0xa7, 0x6c, 0x58, 0x3e, 0x83, 0x9f, 0x53, 0x3a, 0xcb, 0x65, 0xa6, 0x3d,
  0x72, 0x79, 0x60, 0xbe, 0x77, 0x5b, 0x97, 0xbd, 0x24, 0x22, 0x5e, 0xbe,
  0x96, 0x42, 0x63, 0xbe, 0x68, 0x5a, 0xb8, 0xbe, 0xf6, 0x00, 0x2a, 0xbe,
  0xbf, 0x67, 0xa7, 0xbd, 0x74, 0x9f, 0x18, 0x3d, 0x25, 0xff, 0x47, 0xbd,
  0x73, 0xef, 0xe8, 0xbd, 0x55, 0xd8, 0x72, 0x3e, 0x35, 0xeb, 0x00, 0x3e,
  0xd1, 0x85, 0xe3, 0x3f, 0x1b, 0xdd, 0x52, 0x3e, 0x4e, 0x89, 0x58, 0x3d,
  0xbe, 0x85, 0xf5, 0xbd, 0x29, 0xe1, 0x5d, 0xbe, 0xb4, 0xe6, 0xc4, 0xbc,
  0xd0, 0xbc, 0x18, 0xbe, 0xcb, 0xd9, 0xae, 0xbe, 0x2f, 0x4f, 0x0f, 0xbe,
  0xd7, 0xec, 0xed, 0xbc, 0x72, 0x47, 0x0e, 0xbe, 0xdc, 0xdc, 0x6b, 0x3d,
  0x85, 0x58, 0x23, 0xbc, 0xd3, 0x7e, 0xb7, 0xbd, 0x66, 0x70, 0x94, 0xbe,
  0x3e, 0xd1, 0x58, 0x3e, 0x72, 0xe5, 0x1f, 0x3f, 0x85, 0xe2, 0xa1, 0xbe,
  0x7f, 0xce, 0xa5, 0xbe, 0x08, 0x12, 0x1b, 0xbe, 0xe0, 0xad, 0x4a, 0x3e,
  0xce, 0xeb, 0x62, 0x3e, 0x31, 0x16, 0xaa, 0x3e, 0x68, 0x8e, 0x6e, 0x3e,
  0x16, 0xfb, 0x25, 0x3e, 0xa4, 0xb2, 0x52, 0x3e, 0xd3, 0xde, 0xed, 0xbb,
  0x03, 0xa9, 0xbb, 0xbe, 0x80, 0x73, 0x0b, 0x3d, 0x48, 0x86, 0xdb, 0x3d,
  0x5e, 0xd1, 0x75, 0x3e, 0xf2, 0xb6, 0xd2, 0x3a, 0xc4, 0xaa, 0x48, 0xbe,
  0x9f, 0x51, 0x9f, 0x3e, 0x5f, 0x47, 0x8c, 0x3e, 0xf8, 0xb0, 0x36, 0x3e,
  0xf5, 0x5f, 0x8c, 0x3e, 0xc1, 0xf8, 0xe5, 0xbd, 0xe7, 0xac, 0xaf, 0x3e,
  0x33, 0x61, 0x19, 0x3e, 0xf3, 0x4f, 0x0b, 0x3e, 0xdb, 0x94, 0xa7, 0x3d,
  0xc0, 0xaf, 0x1d, 0xbe, 0x83, 0x6f, 0x57, 0xbd, 0xf5, 0xe8, 0xcd, 0xbd,
  0x1e, 0x3e, 0x05, 0xbe, 0xee, 0x8f, 0x73, 0x3e, 0x58, 0x5a, 0x08, 0x3e,
  0x4e, 0x0a, 0x02, 0xbe, 0x2e, 0x5d, 0x53, 0x3d, 0x3a, 0xac, 0xc2, 0x3d,
  0xf4, 0x5a, 0x88, 0x3d, 0x30, 0xce, 0x33, 0xbe, 0x07, 0x42, 0xcf, 0x3d,
  0x85, 0xa4, 0x14, 0xbe, 0xfe, 0xa4, 0x05, 0xbe, 0x1b, 0x15, 0x83, 0xbe,
  0x8f, 0x05, 0x9b, 0xbe, 0x71, 0x68, 0x22, 0xbb, 0x04, 0x95, 0x5c, 0x3e,
  0x56, 0x56, 0x40, 0xbd, 0x4a, 0xbd, 0x01, 0x3e, 0x55, 0xb3, 0x20, 0xbd,
  0x00, 0xc8, 0xa2, 0xbe, 0x94, 0x74, 0x70, 0xbd, 0xeb, 0x35, 0xa5, 0x3e,
  0xa2, 0x99, 0x00, 0x3e, 0x9b, 0x07, 0x0c, 0xbe, 0x3b, 0xf4, 0x44, 0xbe,
  0xab, 0x3c, 0x9a, 0x3c, 0xe9, 0x50, 0xc5, 0xbe, 0x7f, 0xb7, 0x5e, 0x3e,
  0x53, 0x5f, 0x89, 0xbe, 0x2f, 0x5b, 0x8a, 0xbe, 0x3e, 0x2c, 0x25, 0x3e,
  0xb8, 0x84, 0x12, 0xbd, 0x63, 0x2d, 0x2b, 0xbd, 0x1a, 0x85, 0x01, 0xbd,
  0xc9, 0xb6, 0x8b, 0x3d, 0xbe, 0x26, 0x78, 0xbd, 0xc0, 0x83, 0x24, 0xbe,
  0xa8, 0x0f, 0xfc, 0x3d, 0xdc, 0x94, 0x90, 0xbd, 0x74, 0x0c, 0x3e, 0xbe,
  0xbc, 0x24, 0x51, 0x3d, 0x25, 0x91, 0x36, 0x3d, 0xd6, 0xed, 0x50, 0x3c,
  0xb2, 0x7e, 0x22, 0xbc, 0xdd, 0x9b, 0x1f, 0xbe, 0x43, 0x72, 0x03, 0xbd,
  0x06, 0x7b, 0x01, 0xbe, 0xb2, 0x27, 0xb9, 0x3b, 0x51, 0x60, 0x3a, 0xbc,
  0x00, 0xd7, 0x9c, 0x3d, 0xd3, 0x25, 0xee, 0xbd, 0x9d, 0xc0, 0x45, 0x3e,
  0x93, 0x6b, 0x46, 0xbd, 0x79, 0xd0, 0x13, 0xbd, 0xa2, 0xe4, 0x1e, 0x3d,
  0x4c, 0xf1, 0x06, 0x3e, 0x33, 0x25, 0x6c, 0xbe, 0x2d, 0x36, 0x2a, 0xbe,
  0xb3, 0x29, 0x54, 0x3e, 0xaf, 0xe1, 0x0e, 0xbe, 0x34, 0xce, 0x1b, 0xbe,
  0x50, 0xe3, 0x2d, 0xbe, 0x6f, 0xdd, 0x18, 0x3e, 0x36, 0x11, 0xb4, 0xbd,
  0x4f, 0x1e, 0x69, 0xbc, 0xf7, 0x34, 0x0f, 0xbe, 0x78, 0xdf, 0x12, 0xbe,
  0xc2, 0xfb, 0x2f, 0x3d, 0xf3, 0x77, 0x3e, 0x3e, 0x35, 0x3d, 0xc4, 0x3b,
  0x40, 0x9e, 0xbc, 0x3d, 0x40, 0xf5, 0x81, 0x3e, 0x4a, 0x14, 0x66, 0x3e,
  0xa5, 0x5f, 0x72, 0x3d, 0x53, 0xaa, 0xb5, 0x3d, 0x0b, 0xda, 0x69, 0x3e,
  0x53, 0x3d, 0xb6, 0x3b, 0xba, 0x15, 0xb5, 0xbd, 0x2b, 0x81, 0x2c, 0x3d,
  0x74, 0xc5, 0x82, 0x3d, 0x39, 0x96, 0x98, 0xbd, 0xfa, 0xf6, 0xfd, 0xbc,
  0xb5, 0xd1, 0x78, 0x3e, 0x67, 0x49, 0x91, 0x3a, 0x5e, 0x72, 0xb4, 0xbd,
  0x4d, 0xd0, 0x89, 0x3d, 0x8d, 0x27, 0x6f, 0xbe, 0x89, 0x3d, 0x98, 0xbd,
  0xdf, 0x1e, 0x0d, 0xbe, 0xe6, 0xc9, 0xd2, 0x3d, 0x34, 0x23, 0xcd, 0xbc,
  0x8c, 0x99, 0x54, 0xbd, 0x2b, 0x2a, 0x0e, 0xbe, 0xa3, 0xf1, 0x41, 0xbe,
  0xfe, 0x6a, 0xd0, 0x3c, 0x88, 0xde, 0xa1, 0x3e, 0x53, 0x6a, 0xe1, 0xbd,
  0xc9, 0xb6, 0x1b, 0x3e, 0x5e, 0x50, 0x37, 0xbe, 0x7a, 0x62, 0x2e, 0xbe,
  0x55, 0x19, 0xa9, 0x3d, 0x61, 0x94, 0x37, 0x3e, 0x1c, 0x52, 0x0e, 0xbe,
  0x39, 0xc1, 0xb7, 0xbd, 0x4d, 0x05, 0xba, 0xbd, 0xf9, 0x1d, 0xbd, 0xbd,
  0xc2, 0xb6, 0x0a, 0x3d, 0x05, 0xaf, 0xf1, 0x3d, 0x60, 0x12, 0xdb, 0xbd,
  0xcb, 0x1f, 0x92, 0xbd, 0x3a, 0x95, 0x8f, 0x3c, 0x0f, 0x86, 0xa6, 0x3c,
  0x81, 0x49, 0xc1, 0xbd, 0x75, 0x0f, 0x3a, 0x3e, 0x61, 0xc5, 0x04, 0x3c,
  0xb0, 0xd5, 0x24, 0xbe, 0xcf, 0x8c, 0x9d, 0x3f, 0xb1, 0xd5, 0x64, 0x3e,
  0xdd, 0x75, 0x84, 0x3e, 0xc7, 0xbc, 0x6c, 0xbd, 0x02, 0xe6, 0x6c, 0x3e,
  0x56, 0xb1, 0x39, 0x3e, 0xe0, 0x71, 0x03, 0x3e, 0x58, 0x6e, 0xf8, 0xbd,
  0x5f, 0x9f, 0x65, 0x3d, 0xdc, 0xd3, 0xc8, 0xbd, 0x7d, 0xc0, 0x33, 0x3e,
  0x84, 0x0c, 0x2b, 0x3d, 0x9c, 0x9b, 0x92, 0xbe, 0x91, 0x0d, 0x97, 0xbd,
  0xca, 0x51, 0xb7, 0x3d, 0x05, 0x67, 0xdb, 0x3d, 0x6a, 0xc6, 0xb0, 0x3f,
  0x2b, 0xf6, 0x06, 0x3e, 0x19, 0xdb, 0x59, 0x3e, 0xb4, 0xf6, 0xeb, 0xbd,
  0x36, 0x68, 0x76, 0x3e, 0x66, 0xca, 0x44, 0x3c, 0x57, 0x7f, 0x54, 0xbe,
  0x33, 0x86, 0x95, 0x3d, 0x1c, 0x62, 0xad, 0xbd, 0x51, 0x35, 0x20, 0xbe,
  0xa9, 0x35, 0x67, 0x3d, 0x5e, 0x0f, 0xaf, 0x3d, 0xd7, 0xb6, 0x41, 0xbe,
  0xd9, 0x0c, 0x1d, 0xbd, 0x4c, 0xe0, 0x22, 0xbe, 0x92, 0x7e, 0x09, 0xbd,
  0x0f, 0xbf, 0x9f, 0x3f, 0xac, 0x29, 0x41, 0xbd, 0xf1, 0x0f, 0x35, 0x3e,
  0x63, 0xaa, 0x3f, 0x3e, 0x9c, 0xd4, 0x20, 0x3e, 0x5b, 0x64, 0x2f, 0x3d,
  0x26, 0x64, 0xe2, 0xbd, 0x34, 0xd9, 0xbc, 0x3c, 0xe3, 0x00, 0x0e, 0xbe,
  0x4d, 0xeb, 0x65, 0xbe, 0x6f, 0x74, 0x56, 0xbe, 0x6c, 0xd3, 0x20, 0x3e,
  0x37, 0xb7, 0x27, 0xbd, 0xcc, 0xaa, 0x25, 0xbe, 0x4e, 0x44, 0xfa, 0xbd,
  0x25, 0xc4, 0xfa, 0x3d, 0xe4, 0x35, 0xb0, 0x3f, 0x5a, 0x8b, 0x09, 0x3e,
  0x9f, 0x3e, 0x9c, 0xbd, 0xd9, 0x44, 0xc0, 0x3d, 0x40, 0x1f, 0x48, 0xbd,
  0xc4, 0xfe, 0xd4, 0x3d, 0x19, 0xd6, 0x9f, 0xbc, 0xd1, 0x33, 0xde, 0x3c,
  0x7b, 0x68, 0x2e, 0xbe, 0x0e, 0x45, 0x10, 0xbe, 0xcf, 0x57, 0x05, 0x3e,
  0x29, 0x40, 0x24, 0x3e, 0xe8, 0x13, 0x0f, 0xbe, 0xc0, 0xd2, 0x31, 0xbe,
  0xa5, 0x20, 0x60, 0xbe, 0x75, 0x3d, 0xd8, 0xbd, 0xb3, 0x80, 0x96, 0x3f,
  0xdd, 0x6b, 0xc9, 0xbd, 0x48, 0xa3, 0x77, 0x3e, 0x95, 0x54, 0x2a, 0x3c,
  0x12, 0x8f, 0xeb, 0xbd, 0xd9, 0x30, 0x18, 0xbd, 0x8d, 0x13, 0x97, 0x3b,
  0xd0, 0xa2, 0x8b, 0x3d, 0x7f, 0x20, 0xc7, 0xbd, 0xd4, 0x6e, 0x15, 0xbe,
  0x1a, 0xdf, 0x96, 0x3d, 0x36, 0xa2, 0x36, 0xbd, 0x99, 0x26, 0x38, 0xbe,
  0x1c, 0xb5, 0x1b, 0x3e, 0xd1, 0x37, 0xbf, 0xbb, 0x08, 0x05, 0x09, 0x3e,
  0x94, 0x59, 0x1d, 0x3e, 0xec, 0x25, 0x6b, 0xbe, 0x3c, 0x3d, 0x16, 0xbd,
  0x6a, 0xd1, 0x41, 0xbe, 0x7c, 0xe6, 0x20, 0xbe, 0x67, 0xea, 0x75, 0x3d,
  0x19, 0x6c, 0x9e, 0x3d, 0x97, 0xe5, 0xf8, 0xbd, 0x11, 0x44, 0x0d, 0x3e,
  0x5c, 0x7a, 0xa3, 0x3e, 0x23, 0x68, 0xa9, 0xbd, 0x50, 0xd4, 0xe1, 0xbd,
  0x13, 0xd5, 0x13, 0xbe, 0xb6, 0xb8, 0x9b, 0xbd, 0xe3, 0xb1, 0xe5, 0xbc,
  0xd1, 0x18, 0x15, 0xbd, 0xde, 0x4f, 0x2e, 0x3c, 0xc8, 0x9b, 0x39, 0x3d,
  0xed, 0x3d, 0x31, 0xbe, 0xe8, 0x73, 0x58, 0xbe, 0x25, 0xe8, 0xbb, 0xbd,
  0x51, 0x30, 0x12, 0x3e, 0xc2, 0x51, 0xe9, 0xbd, 0x2e, 0xf2, 0xdf, 0x3d,
  0x50, 0x68, 0xc9, 0x3d, 0xb9, 0xa4, 0x0c, 0xbd, 0xd6, 0xd5, 0x18, 0xbd,
  0xb1, 0x03, 0x8e, 0xbc, 0xeb, 0xd2, 0x0c, 0xbc, 0x8f, 0x57, 0xe0, 0xbd,
  0x0b, 0x60, 0x46, 0xbe, 0x42, 0xc9, 0xb4, 0xbd, 0x55, 0x90, 0xd4, 0x3d,
  0xf8, 0xa0, 0x4e, 0xbe, 0x07, 0x49, 0x2e, 0xbe, 0x53, 0x02, 0x0e, 0xbd,
  0x86, 0x69, 0x3f, 0xbd, 0xcc, 0x75, 0x39, 0xbe, 0xed, 0x48, 0x22, 0x3e,
  0x14, 0x55, 0xcf, 0x3d, 0x6e, 0xf3, 0x54, 0x3c, 0x04, 0xe0, 0x7f, 0xbd,
  0x66, 0xce, 0x64, 0x3d, 0x02, 0x43, 0x3e, 0xbe, 0xde, 0xbd, 0xe2, 0xbc,
  0x6b, 0x44, 0xa8, 0x3d, 0x9b, 0xe7, 0x37, 0xbe, 0x94, 0x14, 0x02, 0x3e,
  0x53, 0xbb, 0x5e, 0x3d, 0xc8, 0x14, 0x88, 0xbd, 0xc2, 0x99, 0x90, 0xbe,
  0xc9, 0xb0, 0x17, 0xbd, 0x22, 0x00, 0xc8, 0xbd, 0xd2, 0xe1, 0x86, 0x3c,
  0x4a, 0x99, 0xab, 0xbe, 0x97, 0xd6, 0x84, 0x3d, 0xe8, 0x88, 0x0a, 0xbd,
  0x86, 0x71, 0xa1, 0xbd, 0x8f, 0x8d, 0x3d, 0x3e, 0x87, 0xa7, 0xf9, 0xbd,
  0xf9, 0x5a, 0xc8, 0xbd, 0x6d, 0x62, 0x40, 0x3e, 0xa4, 0x0b, 0xf4, 0x3c,
  0xca, 0x7a, 0xa7, 0x3d, 0xf4, 0x5b, 0xbe, 0xbd, 0xd1, 0xc9, 0xab, 0x3b,
  0x1a, 0x5c, 0x4c, 0xbe, 0xb6, 0xf7, 0xae, 0x3d, 0x4f, 0x18, 0x18, 0x3d,
  0x9a, 0x18, 0x0a, 0xbd, 0x0d, 0xd2, 0xdb, 0x3d, 0xd1, 0xe7, 0x9e, 0xbd,
  0x02, 0x70, 0xb0, 0xbc, 0xb0, 0xf2, 0x88, 0xbe, 0x8b, 0x49, 0x36, 0xbe,
  0x3e, 0x9a, 0x29, 0xbe, 0x07, 0x19, 0x5a, 0xbe, 0x69, 0xb7, 0xe5, 0xbc,
  0x12, 0xda, 0x8b, 0x3d, 0xc0, 0xb4, 0x55, 0xbd, 0xe7, 0x26, 0x44, 0xbe,
  0x9b, 0xb6, 0x78, 0xbe, 0xc7, 0xbc, 0x8d, 0xbd, 0x67, 0x78, 0x8c, 0xbb,
  0xaf, 0x9a, 0x22, 0x3e, 0xb2, 0x44, 0x86, 0x3e, 0x2e, 0xc7, 0x61, 0x3e,
  0xbe, 0x6a, 0xb0, 0x3d, 0xb8, 0xa2, 0x0d, 0xbe, 0x4d, 0x85, 0x06, 0x3e,
  0xf3, 0xde, 0x1d, 0x3e, 0xe1, 0xde, 0x8f, 0xbd, 0x0f, 0x93, 0x75, 0x3d,
  0xd1, 0x38, 0xa4, 0x3d, 0x56, 0x9c, 0x14, 0x3e, 0xc9, 0xf9, 0xd0, 0xbd,
  0xdb, 0x78, 0x7f, 0xbd, 0xe8, 0x98, 0x06, 0x3d, 0xb8, 0xd2, 0x2e, 0x3e,
  0x24, 0xa6, 0x02, 0x3e, 0xfd, 0xa6, 0x8d, 0x3e, 0x3a, 0x74, 0xdb, 0xba,
  0xb0, 0xdb, 0x0e, 0xbe, 0x10, 0x80, 0xde, 0x3d, 0x06, 0xa3, 0x9d, 0xbe,
  0x7e, 0x18, 0x17, 0xbd, 0xc8, 0x2e, 0x2f, 0xbe, 0x4c, 0x5b, 0x23, 0xbe,
  0x95, 0x80, 0x92, 0xbe, 0xfa, 0xc4, 0xd0, 0xbd, 0x8a, 0xd7, 0x0d, 0xbe,
  0x29, 0xcc, 0x27, 0xbe, 0x90, 0xc4, 0x28, 0xbe, 0x15, 0x3d, 0x22, 0xbe,
  0xcd, 0xff, 0x94, 0xbc, 0xe8, 0x26, 0xd3, 0x3d, 0x76, 0x56, 0x9a, 0xbd,
  0x0e, 0x19, 0x1c, 0x3c, 0x79, 0x1d, 0x7a, 0xbe, 0xd4, 0x81, 0xe8, 0x3d,
  0xb7, 0xc3, 0xab, 0x3d, 0x78, 0x2a, 0x15, 0xbe, 0xad, 0x2e, 0x5d, 0xbe,
  0x97, 0x65, 0x2e, 0xbe, 0x08, 0xc2, 0x03, 0xbe, 0x91, 0x37, 0x84, 0x3d,
  0xfd, 0x8b, 0xc1, 0xbd, 0xa9, 0x67, 0xf3, 0x3d, 0x62, 0x2b, 0x19, 0xbe,
  0xe0, 0xde, 0x80, 0x3d, 0x9a, 0x16, 0x17, 0xbe, 0x1c, 0x5c, 0x61, 0x3d,
  0x56, 0x07, 0x0f, 0x3e, 0xd8, 0x6c, 0x4f, 0xbd, 0x50, 0xa7, 0x63, 0xbe,
  0x01, 0x0c, 0xae, 0xbd, 0x0e, 0xa1, 0x14, 0x3d, 0x99, 0x7e, 0x91, 0xbe,
  0x26, 0x6a, 0x17, 0x3e, 0x71, 0xf6, 0xd5, 0xbd, 0xb8, 0xd3, 0x47, 0xbd,
  0x12, 0xba, 0x9f, 0x3d, 0x2b, 0x77, 0x82, 0xbd, 0x53, 0x50, 0xa1, 0x3d,
  0xae, 0x67, 0xa2, 0x3d, 0x01, 0xa4, 0x63, 0xbe, 0xe1, 0x50, 0x3c, 0xbe,
  0x7e, 0xa1, 0xc6, 0x3d, 0xfb, 0xd0, 0x0a, 0xbe, 0x3d, 0x87, 0xe6, 0xbd,
  0x5c, 0xdc, 0xa6, 0xbd, 0x57, 0xe6, 0xb2, 0x3d, 0x55, 0xde, 0x01, 0x3d,
  0x42, 0x07, 0xdc, 0x3c, 0x59, 0xe6, 0x1f, 0x3e, 0x23, 0xff, 0x74, 0x3d,
  0x56, 0x24, 0x78, 0xbe, 0xba, 0x25, 0x98, 0x3d, 0x20, 0x42, 0x56, 0xbe,
  0xe7, 0x26, 0x09, 0x3e, 0xc6, 0x18, 0x0e, 0x3e, 0xb7, 0xb9, 0x06, 0xbe,
  0x73, 0x1a, 0x25, 0x3c, 0xbe, 0x33, 0x1b, 0x3e, 0xdc, 0x0f, 0x53, 0xbe,
  0xcc, 0xa8, 0x30, 0xbd, 0x5d, 0xb5, 0x00, 0x3e, 0x73, 0x73, 0xb0, 0xbd,
  0x01, 0x54, 0x4a, 0xbe, 0xbf, 0x47, 0x30, 0x3d, 0x60, 0xa8, 0xfa, 0x3d,
  0x20, 0x13, 0xee, 0x3c, 0x26, 0x02, 0x89, 0xbe, 0xd5, 0xb2, 0x2c, 0x3e,
  0x0c, 0xfe, 0xb7, 0xbd, 0x58, 0x7a, 0x5d, 0xbd, 0xd3, 0xe2, 0xc9, 0xbd,
  0x14, 0x98, 0x45, 0x3d, 0x53, 0xa1, 0x37, 0xbe, 0x2b, 0xb0, 0x52, 0xbe,
  0x6f, 0xb8, 0x13, 0x3e, 0xcf, 0x27, 0x4a, 0xbe, 0x15, 0x05, 0xa0, 0x3d,
  0x1a, 0xac, 0xa2, 0x3c, 0x1f, 0xcc, 0xff, 0xbd, 0xa3, 0x1c, 0x01, 0xbd,
  0x8b, 0xc1, 0x56, 0xbe, 0x2d, 0xb6, 0x01, 0x3e, 0x65, 0x5f, 0x26, 0xbe,
  0x72, 0x67, 0x60, 0x3d, 0x9f, 0xea, 0x9d, 0x3d, 0x9d, 0xa2, 0x5f, 0x3d,
  0x13, 0xd8, 0x19, 0xbe, 0x7c, 0xea, 0xb1, 0x3d, 0xd4, 0xb5, 0x2a, 0x3d,
  0x9d, 0x55, 0x91, 0x3d, 0x8b, 0xb7, 0xd7, 0xbc, 0x4d, 0x10, 0x86, 0xbd,
  0x1d, 0xee, 0xfa, 0xbd, 0x98, 0x13, 0x19, 0x3d, 0xc1, 0x92, 0x9c, 0x3d,
  0x3f, 0xb0, 0x74, 0xbe, 0x1e, 0xb7, 0x07, 0xbd, 0x0e, 0x0e, 0xa0, 0x3d,
  0x11, 0xa0, 0x90, 0xbd, 0xc1, 0x5e, 0x68, 0x3b, 0x5e, 0x61, 0xa9, 0xbd,
  0x71, 0x25, 0x92, 0x3c, 0xc2, 0x9d, 0x10, 0xbe, 0x97, 0xfe, 0x32, 0xbe,
  0xa0, 0xd9, 0x7e, 0xbc, 0x15, 0x18, 0x82, 0x3c, 0xd6, 0x10, 0x4f, 0xbe,
  0x37, 0xa7, 0x8a, 0xbd, 0x52, 0xc9, 0x18, 0xbe, 0x07, 0xb1, 0x2b, 0xbd,
  0x6a, 0x1b, 0x46, 0xbc, 0x6c, 0xb7, 0x72, 0x3c, 0x0f, 0xd9, 0x3b, 0xba,
  0xfc, 0x40, 0x16, 0xbe, 0x8f, 0xc7, 0x80, 0xbe, 0x87, 0x72, 0xf6, 0xbd,
  0xfb, 0xfe, 0x38, 0x3a, 0x6b, 0x99, 0xed, 0xbd, 0xbd, 0x58, 0x0e, 0xbb,
  0x81, 0x49, 0x6d, 0xbe, 0xd7, 0xd9, 0x49, 0xbe, 0xbb, 0x3f, 0x78, 0x3d,
  0x06, 0x74, 0x67, 0x3d, 0x52, 0x44, 0x0f, 0x3e, 0x64, 0x28, 0x88, 0x3e,
  0x3e, 0x2a, 0x15, 0x3e, 0x88, 0xc3, 0x4d, 0x3e, 0x05, 0x0c, 0x7c, 0x3b,
  0x2d, 0x84, 0xba, 0x3d, 0x06, 0x1a, 0x9c, 0xbe, 0x04, 0x7c, 0xbe, 0xbd,
  0x90, 0x82, 0x63, 0xbd, 0xfd, 0xf0, 0x3c, 0x3e, 0x54, 0x97, 0x7d, 0x3d,
  0x7f, 0xeb, 0xf7, 0x3d, 0x69, 0x94, 0xcf, 0xbd, 0xcf, 0xad, 0x65, 0xbd,
  0xcd, 0x49, 0xf2, 0xbd, 0x20, 0xd6, 0x0f, 0x3e, 0xb0, 0x99, 0x5b, 0x3d,
  0xc1, 0xc2, 0x39, 0xbc, 0xf8, 0xd9, 0x19, 0x3e, 0x9a, 0x77, 0x9b, 0x3c,
  0xcb, 0x31, 0x9a, 0xbd, 0xaa, 0x51, 0xbb, 0xbd, 0x4f, 0x2e, 0xa4, 0xbc,
  0xbf, 0xb8, 0x67, 0xbe, 0xbb, 0xc7, 0xcc, 0xbd, 0xa7, 0x22, 0xe3, 0xbd,
  0xf7, 0x5d, 0xe7, 0xbd, 0x16, 0xe8, 0x34, 0xbe, 0xf7, 0x78, 0x1d, 0x3e,
  0x0e, 0xf5, 0x2b, 0x3e, 0x6a, 0x89, 0x0a, 0x3e, 0x50, 0x67, 0x1d, 0xbd,
  0x61, 0x72, 0xbb, 0xbc, 0xd7, 0xf9, 0x86, 0x3d, 0x30, 0x14, 0xaa, 0xbd,
  0x24, 0x2f, 0x25, 0x3e, 0xe2, 0x21, 0x88, 0xbe, 0x10, 0xc6, 0x39, 0xbe,
  0x83, 0x40, 0x0a, 0x3e, 0x6b, 0xe2, 0x1d, 0xbe, 0xf8, 0xa2, 0xdd, 0xbd,
  0x26, 0x4d, 0xb4, 0x3d, 0x26, 0x9c, 0xe2, 0x3c, 0x82, 0x4d, 0x79, 0xbe,
  0x0f, 0x74, 0x85, 0xbd, 0x65, 0xdb, 0x1f, 0x3d, 0x28, 0x2b, 0x97, 0xbc,
  0x04, 0x5b, 0xd3, 0xbd, 0x67, 0xdd, 0xe7, 0xbd, 0xad, 0xab, 0x1f, 0x3e,
  0xa0, 0xdd, 0x50, 0xbd, 0x11, 0x40, 0xa1, 0xbd, 0x49, 0x9b, 0x11, 0xbe,
  0xab, 0xca, 0x5c, 0xbd, 0x56, 0x8d, 0x4a, 0xbd, 0xc5, 0x21, 0x05, 0xbe,
  0x73, 0x80, 0xeb, 0xbc, 0xc6, 0x48, 0xd6, 0x3b, 0x37, 0xae, 0x08, 0xbe,
  0x7a, 0x49, 0xe5, 0xbc, 0xcb, 0x07, 0x44, 0x3e, 0xde, 0xc6, 0x1b, 0xbc,
  0x77, 0x02, 0x4c, 0xbd, 0x16, 0xa3, 0x35, 0x3e, 0x98, 0xe0, 0x22, 0xbe,
  0x55, 0x1f, 0xb6, 0x3d, 0x62, 0x45, 0x10, 0xbe, 0xca, 0x64, 0xb5, 0xba,
  0xfd, 0x37, 0x44, 0xbd, 0x41, 0x0a, 0x90, 0xbd, 0xc7, 0x8c, 0x19, 0xbd,
  0xe8, 0xf4, 0x4b, 0xbd, 0xa4, 0x77, 0xb1, 0x3d, 0xb9, 0x90, 0x44, 0x3e,
  0xe1, 0x0d, 0x39, 0x3e, 0x9e, 0xfa, 0x01, 0x3c, 0x49, 0xf2, 0x8f, 0x3d,
  0xc9, 0xab, 0xfc, 0xbd, 0xfc, 0x3c, 0x97, 0xbd, 0xe9, 0x18, 0x8f, 0x3e,
  0x7e, 0x23, 0x19, 0x3e, 0xa5, 0xfc, 0x1c, 0x3d, 0x7d, 0x45, 0x67, 0x3e,
  0x69, 0x27, 0xbf, 0x3c, 0xe2, 0x44, 0x26, 0xbd, 0xaf, 0xf8, 0x98, 0xbd,
  0x20, 0x0d, 0x35, 0xbd, 0x71, 0x21, 0xa0, 0xbc, 0x0f, 0xae, 0xa0, 0x3d,
  0xa3, 0x5b, 0x13, 0xbc, 0xd7, 0x09, 0x98, 0xbc, 0xe2, 0xa9, 0x01, 0x3c,
  0x1b, 0x9d, 0x67, 0xbd, 0xa4, 0x29, 0xeb, 0x3d, 0x24, 0x45, 0xda, 0x3d,
  0x00, 0xa8, 0xd6, 0xbc, 0x04, 0xc3, 0xfa, 0x3d, 0xf1, 0xf5, 0x39, 0x3e,
  0x64, 0xaa, 0xd5, 0x3d, 0x53, 0xae, 0x08, 0xbe, 0xd0, 0xf0, 0x23, 0xbe,
  0x81, 0xc8, 0xf1, 0xbd, 0xc9, 0x65, 0xa1, 0xbd, 0xa5, 0xe2, 0xeb, 0xbd,
  0x0b, 0x4e, 0xb9, 0x3d, 0x9a, 0xf2, 0xd7, 0x3d, 0xd6, 0x0d, 0x22, 0x3e,
  0x9c, 0x61, 0xaa, 0x3d, 0x31, 0xe2, 0x8a, 0x3e, 0x0d, 0x8f, 0xf5, 0x3e,
  0x08, 0x26, 0x89, 0x3e, 0x3f, 0x55, 0xbe, 0xbe, 0x5a, 0x83, 0xbf, 0xbe,
  0x84, 0xc7, 0xd3, 0xbe, 0xb6, 0xdd, 0xda, 0xbe, 0x5b, 0x01, 0x01, 0xbf,
  0x07, 0x94, 0x96, 0xbe, 0xc3, 0xf6, 0xbd, 0x3b, 0x9a, 0xc6, 0xa8, 0x3e,
  0xa6, 0x16, 0x45, 0xbd, 0x0f, 0x64, 0xf6, 0x3d, 0xd4, 0xb8, 0x15, 0xbe,
  0x5f, 0xd3, 0x06, 0xbe, 0x15, 0x2c, 0x04, 0x40, 0x83, 0x08, 0x68, 0x3d,
  0xbf, 0x66, 0x00, 0x3e, 0xd2, 0x17, 0xc5, 0xbd, 0xa6, 0xc3, 0x28, 0xbe,
  0xaf, 0xe2, 0xa4, 0x3d, 0xf7, 0xfe, 0x28, 0xbd, 0xc5, 0x0a, 0xb4, 0x3d,
  0x26, 0x03, 0xfb, 0x3d, 0xf9, 0x70, 0x44, 0xbd, 0x21, 0xa2, 0x12, 0x3e,
  0x38, 0x29, 0x25, 0xbe, 0xcd, 0x32, 0xc6, 0x3a, 0x08, 0xec, 0x66, 0x3e,
  0x7a, 0xf9, 0xc7, 0x3d, 0x7a, 0x74, 0xda, 0x3d, 0x6b, 0x3e, 0x10, 0x40,
  0x6f, 0xa3, 0x14, 0x3e, 0x68, 0x8c, 0x1b, 0xbd, 0xce, 0x63, 0x08, 0x3f,
  0xd8, 0xaf, 0x4f, 0x3e, 0xa9, 0x18, 0x47, 0x3c, 0x3d, 0x94, 0x2f, 0x3e,
  0x5a, 0x59, 0xb4, 0x39, 0x9e, 0xe2, 0x9b, 0x3d, 0x1a, 0xf3, 0xf4, 0xbc,
  0x39, 0x0c, 0x5f, 0x3c, 0x95, 0x79, 0x33, 0xbe, 0x31, 0x21, 0x5f, 0x3d,
  0x17, 0xda, 0x8a, 0x3e, 0x28, 0x51, 0x94, 0x3e, 0xf1, 0xec, 0x6c, 0x3e,
  0x11, 0x56, 0xd4, 0x3f, 0x90, 0x36, 0x1b, 0x3e, 0x12, 0x1c, 0xc8, 0x3c,
  0x57, 0xc0, 0x07, 0x3f, 0x3c, 0xa9, 0xc2, 0x3d, 0x25, 0x87, 0xb2, 0x3e,
  0xfd, 0x25, 0x74, 0x3e, 0x4b, 0xb6, 0xec, 0x3d, 0xfb, 0x09, 0x2e, 0x3e,
  0x2e, 0xcd, 0x00, 0x3e, 0xbe, 0xca, 0xdc, 0xbb, 0xe4, 0xfc, 0x28, 0xbc,
  0x2f, 0xab, 0xad, 0x3d, 0x4b, 0xe3, 0x94, 0x3d, 0x87, 0xb9, 0x15, 0x3e,
  0x4a, 0xed, 0x9e, 0x3d, 0x48, 0x35, 0xcd, 0x3f, 0x7a, 0x5c, 0xb2, 0xbc,
  0x68, 0x55, 0x20, 0x3d, 0x6c, 0x86, 0xa1, 0x3e, 0xf5, 0x4b, 0x2f, 0xbe,
  0xb7, 0xc7, 0x56, 0x3d, 0xb6, 0x3b, 0x28, 0x3e, 0x0d, 0x81, 0xa6, 0xbd,
  0x77, 0xfa, 0xb8, 0x3d, 0x83, 0x8c, 0x27, 0xbd, 0x27, 0x0d, 0x42, 0xbd,
  0xbe, 0x48, 0x24, 0x3d, 0x91, 0xab, 0xc6, 0x3d, 0x0b, 0xc6, 0x2e, 0x3e,
  0x41, 0x7c, 0xaa, 0xbe, 0x73, 0x10, 0x54, 0x3d, 0x24, 0xf8, 0xe2, 0x3f,
  0x97, 0xd0, 0x7a, 0x3d, 0x9e, 0xb4, 0x8c, 0x3e, 0xe9, 0x94, 0xe6, 0xbd,
  0xf6, 0xde, 0x33, 0xbe, 0xc4, 0x75, 0x38, 0xbd, 0xd0, 0x11, 0xa7, 0xbd,
  0x8e, 0xc8, 0x87, 0xbe, 0x8e, 0xcd, 0xd3, 0xbd, 0xa6, 0xc2, 0xb4, 0xbd,
  0x12, 0xa3, 0x6c, 0xbd, 0x33, 0x26, 0x3f, 0x3e, 0x64, 0xc0, 0x1a, 0x3c,
  0x59, 0x92, 0x49, 0x3e, 0x7c, 0x3a, 0x83, 0xbe, 0x80, 0x45, 0x21, 0x3d,
  0xd9, 0x2a, 0xfa, 0x3f, 0xf5, 0x8f, 0xb5, 0x3d, 0xc3, 0xad, 0x33, 0x3e,
  0x45, 0x48, 0x40, 0xbb, 0x41, 0x91, 0xea, 0xbd, 0x8a, 0x40, 0xa3, 0xbd,
  0x56, 0xdc, 0x8b, 0xbe, 0xfa, 0x7f, 0x64, 0xbe, 0xc7, 0xd5, 0x6f, 0xbc,
  0xde, 0x7c, 0x7d, 0x3d, 0x3a, 0xec, 0xc3, 0x3d, 0x8c, 0x47, 0x87, 0xb9,
  0x31, 0xd2, 0x35, 0xbc, 0x8c, 0xc6, 0x0f, 0x3c, 0x4c, 0x9d, 0x7b, 0xbe,
  0x6e, 0x31, 0x08, 0xbe, 0x6c, 0xd3, 0xb3, 0x3f, 0x52, 0xe2, 0x99, 0xbe,
  0x3e, 0xae, 0x53, 0xbe, 0xe6, 0x66, 0x82, 0xbe, 0x74, 0xaa, 0xa5, 0x3d,
  0x18, 0xab, 0xab, 0xbd, 0xea, 0x5f, 0xd3, 0x3c, 0x6b, 0x87, 0x3f, 0x3e,
  0x9e, 0xdf, 0x98, 0x3e, 0x29, 0x5c, 0x3c, 0x3e, 0x1e, 0x10, 0xa2, 0xbd,
  0x95, 0xe8, 0x02, 0xbf, 0xa6, 0x21, 0x02, 0xbe, 0x3d, 0xce, 0x33, 0xbd,
  0x28, 0x14, 0x82, 0x3d, 0xc6, 0x0c, 0x8b, 0x3d, 0x54, 0x60, 0x7d, 0x3c,
  0xf3, 0x89, 0x7d, 0xbe, 0xca, 0xbf, 0x26, 0xbe, 0x01, 0x7c, 0x2b, 0xbe,
  0x50, 0x2a, 0x7e, 0x3d, 0x3c, 0xd1, 0x27, 0xbe, 0x48, 0x2a, 0x8f, 0x3c,
  0x1c, 0xac, 0xe7, 0x3d, 0x98, 0x4d, 0x78, 0x3e, 0xde, 0x31, 0xa9, 0x3c,
  0x49, 0xd6, 0x60, 0x3d, 0xdc, 0xb1, 0xc4, 0xbe, 0xcf, 0xbe, 0xd3, 0xbd,
  0x69, 0xe9, 0x6f, 0x3e, 0x94, 0xf6, 0xa4, 0xbd, 0x95, 0x0a, 0x4a, 0x3e,
  0x2b, 0xa7, 0xf4, 0x3d, 0x1d, 0xb8, 0xb0, 0xbd, 0x0a, 0x94, 0x25, 0xbe,
  0xf2, 0x15, 0x2f, 0xbe, 0x04, 0x7d, 0xa8, 0xbd, 0xea, 0x16, 0x8f, 0xbc,
  0x20, 0x6a, 0x7f, 0xbd, 0x80, 0x44, 0x85, 0xbe, 0xd9, 0xa1, 0x62, 0x3e,
  0x9a, 0x53, 0xbf, 0x3d, 0xdc, 0x52, 0xd1, 0xbd, 0x57, 0x3f, 0x38, 0xbe,
  0x75, 0xc8, 0x55, 0xbd, 0x22, 0x3d, 0x57, 0xbb, 0xc6, 0x96, 0xa6, 0xbe,
  0xaa, 0xf9, 0x3b, 0xbc, 0xad, 0x8d, 0x9f, 0x3d, 0xda, 0x1d, 0x74, 0xbe,
  0xba, 0xe8, 0x98, 0xbe, 0x96, 0xc8, 0xb6, 0xbb, 0x56, 0x12, 0x07, 0x3e,
  0x5d, 0x35, 0xfe, 0xbc, 0x80, 0x7a, 0x25, 0xbc, 0x01, 0x03, 0x99, 0xbe,
  0xe6, 0x72, 0xd4, 0xbb, 0xf1, 0xf8, 0xe7, 0xbd, 0x44, 0xeb, 0xab, 0xbd,
  0x30, 0x45, 0xd1, 0xbe, 0x4d, 0x4c, 0xf8, 0xbc, 0x58, 0xc6, 0x73, 0x3d,
  0x78, 0x73, 0x85, 0xbd, 0x9f, 0xb3, 0x42, 0x3e, 0x14, 0xd1, 0xe8, 0xbd,
  0x90, 0x10, 0x7c, 0xbe, 0xb0, 0x0a, 0x82, 0xbe, 0x49, 0x8f, 0xde, 0xbd,
  0x87, 0xdf, 0xa5, 0x3e, 0x12, 0xdd, 0x94, 0x3e, 0x3d, 0x5e, 0x13, 0x3d,
  0xd0, 0x77, 0x91, 0xbc, 0x34, 0x84, 0xd9, 0x3d, 0x8c, 0x1e, 0xda, 0x3d,
  0x1e, 0xf0, 0x3c, 0x3e, 0xfb, 0x1b, 0x8d, 0xbe, 0x28, 0x53, 0xa3, 0xbd,
  0x45, 0xf6, 0x45, 0x3e, 0x00, 0xad, 0xd2, 0x3d, 0x00, 0xb1, 0x8b, 0xbd,
  0x9d, 0x4f, 0x89, 0xbd, 0x36, 0x19, 0xf8, 0x3c, 0xd2, 0xd6, 0x63, 0xbe,
  0x57, 0x66, 0x98, 0x3e, 0x40, 0x18, 0x41, 0x3e, 0x45, 0x75, 0x30, 0x3d,
  0xa5, 0x8e, 0x01, 0x3d, 0x83, 0x28, 0x40, 0x3d, 0xbc, 0x2e, 0xa3, 0xbd,
  0xee, 0xc4, 0xe3, 0xbc, 0x55, 0x5d, 0x0e, 0xbe, 0x2d, 0xd5, 0x20, 0xbe,
  0xca, 0x38, 0xaa, 0xbd, 0x53, 0x62, 0xe7, 0xbc, 0xe8, 0x65, 0xb9, 0x3c,
  0x12, 0x9d, 0x9d, 0xbe, 0x78, 0x2a, 0x5b, 0xbe, 0xdc, 0x4a, 0x2c, 0xbe,
  0x0c, 0x1e, 0xf8, 0x3c, 0x08, 0xc3, 0xb7, 0x3e, 0xc8, 0x29, 0x7d, 0x3b,
  0x6b, 0xab, 0x58, 0x3e, 0xd5, 0xa4, 0x54, 0x3e, 0x23, 0x8f, 0xaf, 0x3e,
  0x2e, 0x88, 0x82, 0x3d, 0x5b, 0x49, 0x32, 0x3d, 0x87, 0x9c, 0xcd, 0x3c,
  0x04, 0x1b, 0x7f, 0x3d, 0x5c, 0x8a, 0x9c, 0xbc, 0xa2, 0xfd, 0x8b, 0x3e,
  0xe1, 0x27, 0xb1, 0x3e, 0x97, 0x37, 0x9d, 0x3e, 0x15, 0x8a, 0xe4, 0xbc,
  0x7e, 0x2c, 0x42, 0x3e, 0x77, 0xc6, 0xe2, 0x3e, 0x79, 0x97, 0xd9, 0x3e,
  0x97, 0x9c, 0x01, 0xbf, 0x49, 0x85, 0x8d, 0xbe, 0x53, 0x44, 0xb6, 0xbe,
  0x6e, 0x06, 0xaf, 0xbe, 0xb9, 0x43, 0xf1, 0xbe, 0x39, 0x47, 0x65, 0xbe,
  0xee, 0x22, 0x8e, 0xbd, 0x1f, 0xca, 0xab, 0x3e, 0xc9, 0xc8, 0x93, 0xba,
  0xf7, 0xe2, 0xb9, 0x3e, 0x58, 0x12, 0xce, 0xbe, 0xb4, 0x36, 0x1e, 0x3e,
  0x9f, 0x04, 0xc2, 0x3f, 0x6e, 0xf0, 0xf1, 0x3d, 0x07, 0x80, 0x8a, 0x3d,
  0x56, 0x6b, 0x2f, 0x3e, 0x40, 0x2c, 0x76, 0x3d, 0x62, 0xae, 0x00, 0x3e,
  0xbb, 0x30, 0xca, 0xbd, 0x83, 0x5f, 0x45, 0xbe, 0x05, 0xa1, 0x64, 0xbd,
  0xdb, 0x8b, 0x35, 0xbe, 0xa1, 0x54, 0x4b, 0x3c, 0xae, 0xc7, 0x5a, 0x3e,
  0x6b, 0xaa, 0x8a, 0x3d, 0xfc, 0xdf, 0xc1, 0xbd, 0x4a, 0x73, 0xc4, 0x3e,
  0xc3, 0x00, 0x00, 0x3b, 0x04, 0xc8, 0xf8, 0x3f, 0x17, 0xec, 0xad, 0x3d,
  0xdd, 0x2f, 0x82, 0x3e, 0x20, 0xd0, 0x00, 0x3f, 0x21, 0xc4, 0xa5, 0x3b,
  0xeb, 0x73, 0xb7, 0x3e, 0xe7, 0x3e, 0x03, 0x3e, 0x5d, 0x7c, 0x3d, 0x3e,
  0xa6, 0x7f, 0xfd, 0x3c, 0xf9, 0x10, 0xd7, 0x3d, 0x3f, 0x86, 0xbe, 0xbd,
  0x4c, 0x8c, 0x31, 0x3e, 0xb1, 0x8d, 0xaa, 0x3c, 0x17, 0xb3, 0x54, 0x3e,
  0x79, 0x99, 0x46, 0x3e, 0x09, 0x34, 0x05, 0x3e, 0x1b, 0xd2, 0xce, 0x3f,
  0xe9, 0xf8, 0xcc, 0x3e, 0xcf, 0xea, 0x44, 0x3e, 0x23, 0xb3, 0xab, 0x3e,
  0x33, 0xee, 0xf0, 0x3e, 0xd5, 0xc0, 0xb8, 0xbc, 0xc2, 0xd4, 0xb4, 0x3d,
  0x87, 0xb6, 0x00, 0x3e, 0xb5, 0x0d, 0x71, 0x3e, 0x5d, 0x45, 0xcf, 0x3d,
  0x80, 0x9b, 0x74, 0x3d, 0x1e, 0xd6, 0x67, 0x3e, 0xdd, 0x41, 0x96, 0xbd,
  0xef, 0xd3, 0x97, 0x3e, 0x21, 0x67, 0x35, 0x3e, 0x31, 0xc3, 0x1e, 0x3e,
  0x2b, 0x7b, 0xdf, 0x3f, 0x89, 0xee, 0x04, 0x3e, 0xa1, 0xd6, 0x18, 0xbc,
  0x03, 0x29, 0xbc, 0x3d, 0xcd, 0xfd, 0x3a, 0xbe, 0x9e, 0x30, 0xde, 0x3d,
  0x93, 0x6f, 0xe7, 0x3d, 0x12, 0x21, 0x1a, 0xba, 0xa5, 0x09, 0x13, 0x3e,
  0x5c, 0x5d, 0x22, 0x3e, 0x36, 0x2b, 0x9d, 0x3d, 0x9a, 0x65, 0x1b, 0x3e,
  0xf2, 0xe2, 0x9e, 0xbc, 0x60, 0x23, 0xc6, 0xbc, 0xfa, 0xaf, 0x5e, 0xbd,
  0xd4, 0xad, 0x13, 0xbd, 0xc3, 0xb5, 0xce, 0x3f, 0x3e, 0xe3, 0xa2, 0x3c,
  0xaf, 0xff, 0x27, 0x3e, 0xca, 0x16, 0x88, 0xbd, 0x98, 0x4f, 0x01, 0xbe,
  0x44, 0xbe, 0xc0, 0xbd, 0xaa, 0xd1, 0x27, 0xbe, 0xbc, 0x81, 0x56, 0x3d,
  0x44, 0xbd, 0x5e, 0xbd, 0xd2, 0x61, 0x7c, 0x3d, 0x4a, 0x9e, 0x57, 0xbe,
  0xdf, 0xca, 0xab, 0xbd, 0x6b, 0xa5, 0x47, 0xbe, 0x59, 0xf9, 0xb8, 0x3d,
  0x2c, 0x94, 0x64, 0x3d, 0x49, 0xc9, 0x4a, 0xbe, 0x1f, 0xa9, 0xf2, 0x3f,
  0xc9, 0x8b, 0xa6, 0x3d, 0x62, 0xb0, 0xf8, 0x3c, 0x68, 0x47, 0x1f, 0x3e,
  0xb9, 0x7b, 0xf1, 0xbd, 0x17, 0x4c, 0xb0, 0x3d, 0x7b, 0x1b, 0x34, 0xbe,
  0x52, 0x8f, 0x36, 0xbe, 0x09, 0x60, 0xa5, 0xbd, 0x06, 0xb6, 0xf3, 0x3c,
  0x76, 0x53, 0x6d, 0xbd, 0xbc, 0x8b, 0xc2, 0xbd, 0xfa, 0x83, 0x03, 0x3c,
  0xba, 0x79, 0xc0, 0x3d, 0xf7, 0xa6, 0x43, 0xbe, 0x00, 0xe7, 0x9a, 0x3e,
  0xbe, 0x69, 0x1c, 0x3f, 0xb5, 0xf1, 0xe3, 0xbe, 0x73, 0x7c, 0xa0, 0xbe,
  0xd4, 0x4d, 0x49, 0xb9, 0x3f, 0x47, 0x2d, 0x3e, 0x4b, 0xcd, 0x2d, 0x3e,
  0x24, 0x33, 0x2d, 0x3e, 0x66, 0x2e, 0x63, 0x3e, 0x1e, 0xce, 0xed, 0x3e,
  0x56, 0xa5, 0xa3, 0x3e, 0xce, 0xf7, 0x98, 0xbc, 0x59, 0x2d, 0x38, 0xbf,
  0xce, 0xdf, 0x1c, 0xbe, 0x83, 0x33, 0x32, 0x3e, 0x52, 0x88, 0xaf, 0x3e,
  0xc4, 0x4a, 0x52, 0x3d, 0xe1, 0xf3, 0x5d, 0x3e, 0x6f, 0xab, 0x1b, 0x3e,
  0xf2, 0xc0, 0xaf, 0x3d, 0x5b, 0x00, 0x67, 0x3d, 0x8f, 0x53, 0xb4, 0x3d,
  0xa1, 0x18, 0xc2, 0x3d, 0xe9, 0x7d, 0x15, 0x3d, 0x6c, 0xb0, 0x69, 0x3e,
  0xc8, 0x90, 0x27, 0x3e, 0x2c, 0x72, 0xd0, 0x3d, 0xb7, 0x60, 0x14, 0xbe,
  0xe6, 0x0c, 0xc3, 0x3c, 0x6a, 0x3a, 0x95, 0xbd, 0x6f, 0x01, 0x1f, 0xbe,
  0xbd, 0xd4, 0x91, 0x3e, 0xf8, 0x26, 0x99, 0xbc, 0x21, 0xb0, 0x01, 0xbd,
  0xfc, 0x36, 0x5a, 0x3e, 0x70, 0x15, 0x8b, 0xbd, 0x44, 0x09, 0xed, 0x3d,
  0x9d, 0xfc, 0x41, 0x3d, 0x9b, 0x44, 0x5c, 0x3d, 0xdf, 0x77, 0xd2, 0xbd,
  0x80, 0xe2, 0x31, 0xbe, 0x9b, 0x3a, 0xd2, 0xbd, 0x9f, 0xb8, 0xf5, 0xbc,
  0x9e, 0x70, 0x1d, 0x3e, 0x4a, 0x8b, 0x65, 0x3c, 0xb1, 0xf4, 0xde, 0x3c,
  0xe4, 0xa5, 0x31, 0x3e, 0x81, 0x0f, 0x17, 0xbe, 0xb2, 0x0a, 0xe5, 0xbd,
  0x49, 0xf5, 0x10, 0xbd, 0xef, 0x0f, 0x11, 0xbd, 0xd0, 0x1c, 0x47, 0xbd,
  0xb0, 0x90, 0x17, 0x3e, 0xbc, 0x7d, 0xf7, 0x3c, 0x9a, 0x94, 0x95, 0xbe,
  0xfd, 0xc0, 0x4b, 0xbe, 0xf0, 0x09, 0x2f, 0xbc, 0xaf, 0x35, 0xd9, 0xbc,
  0x16, 0x51, 0x06, 0xbe, 0x37, 0xce, 0xe4, 0x3d, 0x9a, 0xb1, 0xa9, 0xbd,
  0x19, 0x22, 0x0f, 0xbe, 0x21, 0xd4, 0x1c, 0xbe, 0x19, 0x72, 0xad, 0xbd,
  0xe2, 0x8d, 0xae, 0x3d, 0xf4, 0x99, 0x8f, 0xbb, 0xf9, 0xd0, 0x02, 0x3b,
  0x31, 0xa1, 0x05, 0xbd, 0x1f, 0x76, 0x8a, 0x3e, 0xa8, 0xf0, 0xeb, 0x3e,
  0x99, 0xe4, 0x32, 0xbc, 0x5f, 0x22, 0x8f, 0x3e, 0x08, 0xd9, 0x68, 0x3e,
  0xfe, 0x00, 0x31, 0xbe, 0xba, 0xf9, 0x34, 0x3d, 0x24, 0xc9, 0xed, 0xbc,
  0xb3, 0x67, 0xec, 0xbd, 0x3c, 0xb4, 0x1d, 0xbe, 0xc0, 0x6b, 0xd7, 0xba,
  0x16, 0x40, 0x97, 0x3c, 0x23, 0x41, 0xed, 0xbd, 0x39, 0x42, 0x90, 0xbd,
  0xa6, 0xb6, 0x88, 0x3d, 0x98, 0xe9, 0x1b, 0x3d, 0xc1, 0x74, 0x70, 0x3e,
  0x3b, 0x28, 0x17, 0x3e, 0xcb, 0x28, 0xde, 0x3d, 0xab, 0x82, 0x3b, 0x3e,
  0x61, 0x72, 0x09, 0x3d, 0xd8, 0xd8, 0xa9, 0x3e, 0x13, 0xe8, 0x55, 0x3d,
  0x6a, 0x38, 0xb9, 0xbd, 0x99, 0x74, 0x3d, 0xbe, 0xda, 0x6f, 0x34, 0xbd,
  0x4a, 0x41, 0x36, 0x3e, 0xfb, 0x21, 0x12, 0x3e, 0x62, 0x60, 0x57, 0x3e,
  0x07, 0x23, 0x18, 0xbe, 0x53, 0x1a, 0xc6, 0xbd, 0xc3, 0xf5, 0x30, 0x3e,
  0xe8, 0x0a, 0xd5, 0x3e, 0x3d, 0xcd, 0x23, 0x3e, 0xc9, 0x4d, 0x28, 0x3e,
  0xea, 0x0a, 0xc5, 0x3e, 0x8c, 0xdc, 0xa1, 0x3d, 0xf3, 0x09, 0xbf, 0x3d,
  0xfb, 0x84, 0xec, 0x3c, 0x2e, 0x70, 0xe7, 0xbd, 0xa9, 0xcd, 0x54, 0x3a,
  0x3a, 0x04, 0x7b, 0xbd, 0x8e, 0x80, 0xf8, 0x3d, 0xd9, 0x18, 0x85, 0x3e,
  0x11, 0x2d, 0x6e, 0x3e, 0x2e, 0xc5, 0x1d, 0x3c, 0x3a, 0x78, 0x01, 0xbf,
  0x59, 0x86, 0x67, 0xbe, 0x64, 0x9f, 0xf3, 0xbd, 0xee, 0x96, 0xeb, 0xbd,
  0x18, 0xb2, 0x48, 0xbe, 0x0e, 0xdc, 0xb0, 0xbe, 0xe0, 0x73, 0x9b, 0x3e,
  0x58, 0x89, 0xa1, 0xbc, 0x64, 0x9e, 0x75, 0xbd, 0x1c, 0x32, 0x15, 0xbc,
  0x1e, 0x46, 0xd6, 0xbe, 0x6f, 0x6b, 0xc8, 0xbe, 0xf1, 0x35, 0x2f, 0x3e,
  0x5c, 0xc0, 0x28, 0x3e, 0x6e, 0x08, 0xe3, 0x3d, 0x3d, 0x29, 0x79, 0xbd,
  0x05, 0x03, 0x8f, 0xbc, 0x5d, 0x89, 0x91, 0xbd, 0x10, 0x09, 0x61, 0x3e,
  0x3d, 0xda, 0x15, 0x3e, 0x58, 0x07, 0x19, 0x3c, 0x67, 0xa1, 0xcc, 0x3c,
  0xbd, 0x4b, 0x53, 0x3e, 0xef, 0xd1, 0x63, 0xbc, 0xce, 0xdb, 0x93, 0x3d,
  0xdd, 0xe4, 0xda, 0x3d, 0x59, 0x2e, 0x6b, 0xbe, 0xe2, 0xf0, 0xeb, 0xbd,
  0xdf, 0x4c, 0xef, 0xbd, 0x08, 0xe0, 0x9a, 0xbd, 0x60, 0xbe, 0xee, 0xbb,
  0x40, 0xfd, 0xbd, 0x3b, 0x24, 0x96, 0x29, 0xbd, 0x0d, 0xaf, 0x36, 0x3c,
  0x17, 0x5b, 0x3c, 0x3e, 0xe2, 0x36, 0x54, 0x3e, 0x4c, 0x07, 0xf6, 0x3d,
  0x5b, 0x20, 0x29, 0x3e, 0x35, 0xa8, 0x00, 0xbb, 0x01, 0xa7, 0x16, 0x3e,
  0x8e, 0xce, 0x6c, 0xbc, 0x54, 0xb1, 0xb6, 0x3d, 0x4c, 0xe9, 0x16, 0xbe,
  0x85, 0x37, 0xa7, 0xbd, 0x80, 0xc6, 0xcf, 0x3c, 0xc5, 0x73, 0xed, 0xbd,
  0x8f, 0x39, 0x3c, 0x3e, 0x09, 0x6a, 0xe7, 0xbd, 0x63, 0x94, 0xab, 0xbe,
  0x48, 0xf6, 0x4d, 0x3d, 0x6f, 0x25, 0x0c, 0xbd, 0xd0, 0x70, 0xc8, 0xbd,
  0xd6, 0xe0, 0x71, 0xbe, 0x82, 0xb9, 0x2d, 0x3e, 0x8e, 0xde, 0x3f, 0xbd,
  0x5d, 0xb4, 0x83, 0x3e, 0x17, 0xb5, 0x8d, 0x3c, 0x44, 0x2c, 0x13, 0xbe,
  0x19, 0xe6, 0x64, 0xbe, 0x62, 0x79, 0x0e, 0xbe, 0x8c, 0x30, 0x83, 0xbd,
  0xb7, 0x1f, 0xab, 0x3d, 0x44, 0x25, 0x85, 0x3d, 0xde, 0xf2, 0x29, 0x3d,
  0x10, 0x71, 0xc4, 0x3b, 0x79, 0xbc, 0x90, 0xbe, 0xd5, 0x7d, 0xd0, 0x3e,
  0x39, 0x18, 0xbb, 0x3e, 0x0d, 0x8a, 0x30, 0x3d, 0xed, 0x07, 0xc8, 0x3e,
  0xc2, 0xe2, 0x07, 0x3e, 0x9b, 0xde, 0x99, 0x3e, 0x92, 0xc2, 0x15, 0xbd,
  0x34, 0xf2, 0x65, 0xbd, 0x38, 0x4d, 0x54, 0xbe, 0x0d, 0xc4, 0xea, 0xbd,
  0xf4, 0xa5, 0x55, 0x3e, 0x39, 0x03, 0xc9, 0x3e, 0xbf, 0x5b, 0x09, 0x3e,
  0xaa, 0x15, 0x71, 0xbc, 0xb9, 0x13, 0x4a, 0x3d, 0xd3, 0xe0, 0xa6, 0x3c,
  0x15, 0x1c, 0x2e, 0x3e, 0xa0, 0x13, 0x8b, 0x3e, 0x7f, 0x22, 0x51, 0x3e,
  0x31, 0x19, 0x04, 0x3f, 0x78, 0xe7, 0x00, 0x3e, 0x6c, 0xd5, 0x9e, 0x3e,
  0x0e, 0x36, 0xa0, 0x3b, 0x1f, 0x02, 0x31, 0xbd, 0x84, 0xed, 0xee, 0xbd,
  0x9f, 0xba, 0x1b, 0xbc, 0xd1, 0x24, 0xa7, 0x3d, 0x1c, 0x5b, 0x85, 0x3e,
  0x73, 0xb3, 0x05, 0x3e, 0xfa, 0xab, 0x35, 0xbe, 0x07, 0x04, 0x37, 0x3e,
  0x8c, 0x73, 0xc5, 0x3d, 0xf7, 0x5c, 0x46, 0x3e, 0xf7, 0xa1, 0xce, 0x3b,
  0x56, 0x0f, 0xfb, 0x3d, 0x45, 0xde, 0xda, 0x3e, 0x17, 0xc2, 0x37, 0x3d,
  0x1a, 0xb9, 0x3a, 0xbb, 0x0f, 0xdd, 0xd0, 0xbc, 0x44, 0xed, 0x60, 0xbd,
  0x24, 0x2e, 0x1a, 0xbe, 0x45, 0x7a, 0x24, 0x3d, 0x83, 0xc7, 0x10, 0xbd,
  0x26, 0x3d, 0xc1, 0xbd, 0xc0, 0x78, 0x3c, 0x3d, 0xa3, 0x6f, 0x2a, 0x3e,
  0x66, 0xfd, 0xff, 0xff, 0x10, 0x00, 0x00, 0x00, 0x07, 0x00, 0x00, 0x00,
  0x14, 0x00, 0x00, 0x00, 0x2c, 0x00, 0x00, 0x00, 0x02, 0x00, 0x00, 0x00,
  0x10, 0x00, 0x00, 0x00, 0x70, 0x00, 0x00, 0x00, 0x17, 0x00, 0x00, 0x00,
  0x73, 0x65, 0x71, 0x75, 0x65, 0x6e, 0x74, 0x69, 0x61, 0x6c, 0x2f, 0x64,
  0x65, 0x6e, 0x73, 0x65, 0x2f, 0x4d, 0x61, 0x74, 0x4d, 0x75, 0x6c, 0x00,
  0xd0, 0xfc, 0xff, 0xff, 0xda, 0xfd, 0xff, 0xff, 0x04, 0x00, 0x00, 0x00,
  0x08, 0x00, 0x00, 0x00, 0xff, 0xff, 0xff, 0xff, 0x70, 0x00, 0x00, 0x00,
  0x00, 0x00, 0x0e, 0x00, 0x18, 0x00, 0x08, 0x00, 0x07, 0x00, 0x0c, 0x00,
  0x10, 0x00, 0x14, 0x00, 0x0e, 0x00, 0x00, 0x00, 0x00, 0x00, 0x00, 0x02,
  0x10, 0x00, 0x00, 0x00, 0x06, 0x00, 0x00, 0x00, 0x10, 0x00, 0x00, 0x00,
  0x2c, 0x00, 0x00, 0x00, 0x01, 0x00, 0x00, 0x00, 0x02, 0x00, 0x00, 0x00,
  0x18, 0x00, 0x00, 0x00, 0x73, 0x65, 0x71, 0x75, 0x65, 0x6e, 0x74, 0x69,
  0x61, 0x6c, 0x2f, 0x66, 0x6c, 0x61, 0x74, 0x74, 0x65, 0x6e, 0x2f, 0x43,
  0x6f, 0x6e, 0x73, 0x74, 0x00, 0x00, 0x00, 0x00, 0x38, 0xfd, 0xff, 0xff,
  0x42, 0xfe, 0xff, 0xff, 0x04, 0x00, 0x00, 0x00, 0x0c, 0x00, 0x00, 0x00,
  0x67, 0x62, 0x4c, 0x3f, 0xbf, 0xa8, 0xbf, 0xbe, 0xe9, 0xb0, 0xc2, 0xc0,
  0x26, 0xfe, 0xff, 0xff, 0x10, 0x00, 0x00, 0x00, 0x05, 0x00, 0x00, 0x00,
  0x10, 0x00, 0x00, 0x00, 0x44, 0x00, 0x00, 0x00, 0x01, 0x00, 0x00, 0x00,
  0x03, 0x00, 0x00, 0x00, 0x32, 0x00, 0x00, 0x00, 0x73, 0x65, 0x71, 0x75,
  0x65, 0x6e, 0x74, 0x69, 0x61, 0x6c, 0x2f, 0x64, 0x65, 0x6e, 0x73, 0x65,
  0x5f, 0x31, 0x2f, 0x42, 0x69, 0x61, 0x73, 0x41, 0x64, 0x64, 0x2f, 0x52,
  0x65, 0x61, 0x64, 0x56, 0x61, 0x72, 0x69, 0x61, 0x62, 0x6c, 0x65, 0x4f,
  0x70, 0x2f, 0x72, 0x65, 0x73, 0x6f, 0x75, 0x72, 0x63, 0x65, 0x00, 0x00,
  0xa8, 0xfd, 0xff, 0xff, 0xb2, 0xfe, 0xff, 0xff, 0x04, 0x00, 0x00, 0x00,
  0x40, 0x00, 0x00, 0x00, 0x80, 0x2b, 0x29, 0x3e, 0x39, 0x33, 0x3e, 0xbe,
  0x63, 0x15, 0xb9, 0xbd, 0xac, 0x92, 0x24, 0x3f, 0xea, 0x58, 0x3e, 0xbf,
  0xee, 0xb5, 0xf5, 0x3e, 0xd2, 0x02, 0x29, 0xbf, 0x5c, 0x8f, 0x1a, 0xbe,
  0x41, 0x0e, 0x30, 0xbe, 0x6e, 0x75, 0xe9, 0xbd, 0x41, 0x2b, 0xea, 0xbe,
  0xde, 0xa3, 0x72, 0x3f, 0xda, 0xe6, 0xa0, 0xbd, 0x64, 0xc3, 0xeb, 0x3e,
  0xf6, 0xd3, 0xd5, 0xbe, 0x4e, 0x60, 0xfb, 0xbe, 0xca, 0xfe, 0xff, 0xff,
  0x10, 0x00, 0x00, 0x00, 0x04, 0x00, 0x00, 0x00, 0x10, 0x00, 0x00, 0x00,
  0x44, 0x00, 0x00, 0x00, 0x01, 0x00, 0x00, 0x00, 0x10, 0x00, 0x00, 0x00,
  0x30, 0x00, 0x00, 0x00, 0x73, 0x65, 0x71, 0x75, 0x65, 0x6e, 0x74, 0x69,
  0x61, 0x6c, 0x2f, 0x64, 0x65, 0x6e, 0x73, 0x65, 0x2f, 0x42, 0x69, 0x61,
  0x73, 0x41, 0x64, 0x64, 0x2f, 0x52, 0x65, 0x61, 0x64, 0x56, 0x61, 0x72,
  0x69, 0x61, 0x62, 0x6c, 0x65, 0x4f, 0x70, 0x2f, 0x72, 0x65, 0x73, 0x6f,
  0x75, 0x72, 0x63, 0x65, 0x00, 0x00, 0x00, 0x00, 0x4c, 0xfe, 0xff, 0xff,
  0x56, 0xff, 0xff, 0xff, 0x04, 0x00, 0x00, 0x00, 0x40, 0x00, 0x00, 0x00,
  0xd3, 0xe9, 0xa9, 0x3d, 0x01, 0xd6, 0xa8, 0x3e, 0x31, 0xf6, 0x5d, 0xbe,
  0xc0, 0xc6, 0x1a, 0xbf, 0xf8, 0x27, 0x0a, 0xbf, 0x04, 0x84, 0x0b, 0xbf,
  0x6e, 0x0e, 0x96, 0xbe, 0xc7, 0x5e, 0xac, 0xbe, 0xd8, 0xdf, 0x82, 0xbe,
  0xc5, 0xf4, 0x07, 0xbe, 0xa5, 0xce, 0xd2, 0x3e, 0x5f, 0x2b, 0x9d, 0x3d,
  0xc3, 0x49, 0xe2, 0xbd, 0x4e, 0x0f, 0x15, 0xbd, 0x19, 0x71, 0xc7, 0xbd,
  0x54, 0xf5, 0x15, 0x40, 0x6e, 0xff, 0xff, 0xff, 0x10, 0x00, 0x00, 0x00,
  0x03, 0x00, 0x00, 0x00, 0x10, 0x00, 0x00, 0x00, 0x48, 0x00, 0x00, 0x00,
  0x01, 0x00, 0x00, 0x00, 0x10, 0x00, 0x00, 0x00, 0x33, 0x00, 0x00, 0x00,
  0x73, 0x65, 0x71, 0x75, 0x65, 0x6e, 0x74, 0x69, 0x61, 0x6c, 0x2f, 0x63,
  0x6f, 0x6e, 0x76, 0x32, 0x64, 0x5f, 0x31, 0x2f, 0x42, 0x69, 0x61, 0x73,
  0x41, 0x64, 0x64, 0x2f, 0x52, 0x65, 0x61, 0x64, 0x56, 0x61, 0x72, 0x69,
  0x61, 0x62, 0x6c, 0x65, 0x4f, 0x70, 0x2f, 0x72, 0x65, 0x73, 0x6f, 0x75,
  0x72, 0x63, 0x65, 0x00, 0x04, 0x00, 0x06, 0x00, 0x04, 0x00, 0x00, 0x00,
  0x00, 0x00, 0x06, 0x00, 0x08, 0x00, 0x04, 0x00, 0x06, 0x00, 0x00, 0x00,
  0x04, 0x00, 0x00, 0x00, 0x20, 0x00, 0x00, 0x00, 0xa9, 0x7a, 0x59, 0xbf,
  0x15, 0xb7, 0x07, 0xbe, 0x7d, 0x01, 0x9a, 0xbf, 0x68, 0xc6, 0x29, 0xbf,
  0x67, 0xeb, 0x00, 0xbf, 0xdf, 0xb5, 0x94, 0xbf, 0x1c, 0x5a, 0x1b, 0xbf,
  0x17, 0x8b, 0xfc, 0xbe, 0x00, 0x00, 0x0e, 0x00, 0x14, 0x00, 0x04, 0x00,
  0x00, 0x00, 0x08, 0x00, 0x0c, 0x00, 0x10, 0x00, 0x0e, 0x00, 0x00, 0x00,
  0x10, 0x00, 0x00, 0x00, 0x02, 0x00, 0x00, 0x00, 0x10, 0x00, 0x00, 0x00,
  0x44, 0x00, 0x00, 0x00, 0x01, 0x00, 0x00, 0x00, 0x08, 0x00, 0x00, 0x00,
  0x31, 0x00, 0x00, 0x00, 0x73, 0x65, 0x71, 0x75, 0x65, 0x6e, 0x74, 0x69,
  0x61, 0x6c, 0x2f, 0x63, 0x6f, 0x6e, 0x76, 0x32, 0x64, 0x2f, 0x42, 0x69,
  0x61, 0x73, 0x41, 0x64, 0x64, 0x2f, 0x52, 0x65, 0x61, 0x64, 0x56, 0x61,
  0x72, 0x69, 0x61, 0x62, 0x6c, 0x65, 0x4f, 0x70, 0x2f, 0x72, 0x65, 0x73,
  0x6f, 0x75, 0x72, 0x63, 0x65, 0x00, 0x00, 0x00, 0x90, 0xff, 0xff, 0xff,
  0x14, 0x00, 0x18, 0x00, 0x04, 0x00, 0x00, 0x00, 0x08, 0x00, 0x0c, 0x00,
  0x10, 0x00, 0x00, 0x00, 0x00, 0x00, 0x14, 0x00, 0x14, 0x00, 0x00, 0x00,
  0x14, 0x00, 0x00, 0x00, 0x01, 0x00, 0x00, 0x00, 0x20, 0x00, 0x00, 0x00,
  0x44, 0x00, 0x00, 0x00, 0x2c, 0x00, 0x00, 0x00, 0x04, 0x00, 0x00, 0x00,
  0x01, 0x00, 0x00, 0x00, 0x40, 0x00, 0x00, 0x00, 0x03, 0x00, 0x00, 0x00,
  0x01, 0x00, 0x00, 0x00, 0x0c, 0x00, 0x00, 0x00, 0x63, 0x6f, 0x6e, 0x76,
  0x32, 0x64, 0x5f, 0x69, 0x6e, 0x70, 0x75, 0x74, 0x00, 0x00, 0x00, 0x00,
  0x04, 0x00, 0x00, 0x00, 0xff, 0xff, 0xff, 0xff, 0x40, 0x00, 0x00, 0x00,
  0x03, 0x00, 0x00, 0x00, 0x01, 0x00, 0x00, 0x00, 0xfc, 0xff, 0xff, 0xff,
  0x04, 0x00, 0x04, 0x00, 0x04, 0x00, 0x00, 0x00
};
unsigned int _content_mbed08_model_model_tflite_len = 13052;
